{
  "version": "1.0",
  "truncation": null,
  "padding": null,
  "added_tokens": [
    {
      "id": 0,
      "content": "<unk>",
      "single_word": false,
      "lstrip": false,
      "rstrip": false,
      "normalized": false,
      "special": true
    },
    {
      "id": 1,
      "content": "<s>",
      "single_word": false,
      "lstrip": false,
      "rstrip": false,
      "normalized": false,
      "special": true
    },
    {
      "id": 2,
      "content": "</s>",
      "single_word": false,
      "lstrip": false,
      "rstrip": false,
      "normalized": false,
      "special": true
    },
    {
      "id": 3,
      "content": "<MASK|LLM-jp>",
      "single_word": false,
      "lstrip": false,
      "rstrip": false,
      "normalized": false,
      "special": true
    },
    {
      "id": 4,
      "content": "<PAD|LLM-jp>",
      "single_word": false,
      "lstrip": false,
      "rstrip": false,
      "normalized": false,
      "special": true
    },
    {
      "id": 5,
      "content": "<CLS|LLM-jp>",
      "single_word": false,
      "lstrip": false,
      "rstrip": false,
      "normalized": false,
      "special": true
    },
    {
      "id": 6,
      "content": "<SEP|LLM-jp>",
      "single_word": false,
      "lstrip": false,
      "rstrip": false,
      "normalized": false,
      "special": true
    },
    {
      "id": 7,
      "content": "<EOD|LLM-jp>",
      "single_word": false,
      "lstrip": false,
      "rstrip": false,
      "normalized": false,
      "special": true
    }
  ],
  "normalizer": {
    "type": "Sequence",
    "normalizers": [
      {
        "type": "Replace",
        "pattern": {
          "Regex": "(?<!\\n)^"
        },
        "content": "▁"
      },
      {
        "type": "Replace",
        "pattern": {
          "Regex": " "
        },
        "content": "▁"
      }
    ]
  },
  "pre_tokenizer": null,
  "post_processor": {
    "type": "TemplateProcessing",
    "single": [
      {
        "SpecialToken": {
          "id": "<s>",
          "type_id": 0
        }
      },
      {
        "Sequence": {
          "id": "A",
          "type_id": 0
        }
      }
    ],
    "pair": [
      {
        "SpecialToken": {
          "id": "<s>",
          "type_id": 0
        }
      },
      {
        "Sequence": {
          "id": "A",
          "type_id": 0
        }
      },
      {
        "SpecialToken": {
          "id": "<s>",
          "type_id": 1
        }
      },
      {
        "Sequence": {
          "id": "B",
          "type_id": 1
        }
      }
    ],
    "special_tokens": {
      "<s>": {
        "id": "<s>",
        "ids": [
          1
        ],
        "tokens": [
          "<s>"
        ]
      }
    }
  },
  "decoder": {
    "type": "Sequence",
    "decoders": [
      {
        "type": "ByteFallback"
      },
      {
        "type": "Replace",
        "pattern": {
          "Regex": "▁"
        },
        "content": " "
      },
      {
        "type": "Fuse"
      },
      {
        "type": "Replace",
        "pattern": {
          "Regex": "(?<!\\n)^ "
        },
        "content": ""
      }
    ]
  },
  "model": {
    "type": "Unigram",
    "unk_id": 0,
    "vocab": [
      [
        "<unk>",
        -127.5
      ],
      [
        "<s>",
        -127.5
      ],
      [
        "</s>",
        -127.5
      ],
      [
        "<MASK|LLM-jp>",
        -127.5
      ],
      [
        "<PAD|LLM-jp>",
        -127.5
      ],
      [
        "<CLS|LLM-jp>",
        -127.5
      ],
      [
        "<SEP|LLM-jp>",
        -127.5
      ],
      [
        "<EOD|LLM-jp>",
        -127.5
      ],
      [
        "<0x00>",
        -127.5
      ],
      [
        "<0x01>",
        -127.5
      ],
      [
        "<0x02>",
        -127.5
      ],
      [
        "<0x03>",
        -127.5
      ],
      [
        "<0x04>",
        -127.5
      ],
      [
        "<0x05>",
        -127.5
      ],
      [
        "<0x06>",
        -127.5
      ],
      [
        "<0x07>",
        -127.5
      ],
      [
        "<0x08>",
        -127.5
      ],
      [
        "<0x09>",
        -127.5
      ],
      [
        "<0x0A>",
        -127.5
      ],
      [
        "<0x0B>",
        -127.5
      ],
      [
        "<0x0C>",
        -127.5
      ],
      [
        "<0x0D>",
        -127.5
      ],
      [
        "<0x0E>",
        -127.5
      ],
      [
        "<0x0F>",
        -127.5
      ],
      [
        "<0x10>",
        -127.5
      ],
      [
        "<0x11>",
        -127.5
      ],
      [
        "<0x12>",
        -127.5
      ],
      [
        "<0x13>",
        -127.5
      ],
      [
        "<0x14>",
        -127.5
      ],
      [
        "<0x15>",
        -127.5
      ],
      [
        "<0x16>",
        -127.5
      ],
      [
        "<0x17>",
        -127.5
      ],
      [
        "<0x18>",
        -127.5
      ],
      [
        "<0x19>",
        -127.5
      ],
      [
        "<0x1A>",
        -127.5
      ],
      [
        "<0x1B>",
        -127.5
      ],
      [
        "<0x1C>",
        -127.5
      ],
      [
        "<0x1D>",
        -127.5
      ],
      [
        "<0x1E>",
        -127.5
      ],
      [
        "<0x1F>",
        -127.5
      ],
      [
        "<0x20>",
        -127.5
      ],
      [
        "<0x21>",
        -127.5
      ],
      [
        "<0x22>",
        -127.5
      ],
      [
        "<0x23>",
        -127.5
      ],
      [
        "<0x24>",
        -127.5
      ],
      [
        "<0x25>",
        -127.5
      ],
      [
        "<0x26>",
        -127.5
      ],
      [
        "<0x27>",
        -127.5
      ],
      [
        "<0x28>",
        -127.5
      ],
      [
        "<0x29>",
        -127.5
      ],
      [
        "<0x2A>",
        -127.5
      ],
      [
        "<0x2B>",
        -127.5
      ],
      [
        "<0x2C>",
        -127.5
      ],
      [
        "<0x2D>",
        -127.5
      ],
      [
        "<0x2E>",
        -127.5
      ],
      [
        "<0x2F>",
        -127.5
      ],
      [
        "<0x30>",
        -127.5
      ],
      [
        "<0x31>",
        -127.5
      ],
      [
        "<0x32>",
        -127.5
      ],
      [
        "<0x33>",
        -127.5
      ],
      [
        "<0x34>",
        -127.5
      ],
      [
        "<0x35>",
        -127.5
      ],
      [
        "<0x36>",
        -127.5
      ],
      [
        "<0x37>",
        -127.5
      ],
      [
        "<0x38>",
        -127.5
      ],
      [
        "<0x39>",
        -127.5
      ],
      [
        "<0x3A>",
        -127.5
      ],
      [
        "<0x3B>",
        -127.5
      ],
      [
        "<0x3C>",
        -127.5
      ],
      [
        "<0x3D>",
        -127.5
      ],
      [
        "<0x3E>",
        -127.5
      ],
      [
        "<0x3F>",
        -127.5
      ],
      [
        "<0x40>",
        -127.5
      ],
      [
        "<0x41>",
        -127.5
      ],
      [
        "<0x42>",
        -127.5
      ],
      [
        "<0x43>",
        -127.5
      ],
      [
        "<0x44>",
        -127.5
      ],
      [
        "<0x45>",
        -127.5
      ],
      [
        "<0x46>",
        -127.5
      ],
      [
        "<0x47>",
        -127.5
      ],
      [
        "<0x48>",
        -127.5
      ],
      [
        "<0x49>",
        -127.5
      ],
      [
        "<0x4A>",
        -127.5
      ],
      [
        "<0x4B>",
        -127.5
      ],
      [
        "<0x4C>",
        -127.5
      ],
      [
        "<0x4D>",
        -127.5
      ],
      [
        "<0x4E>",
        -127.5
      ],
      [
        "<0x4F>",
        -127.5
      ],
      [
        "<0x50>",
        -127.5
      ],
      [
        "<0x51>",
        -127.5
      ],
      [
        "<0x52>",
        -127.5
      ],
      [
        "<0x53>",
        -127.5
      ],
      [
        "<0x54>",
        -127.5
      ],
      [
        "<0x55>",
        -127.5
      ],
      [
        "<0x56>",
        -127.5
      ],
      [
        "<0x57>",
        -127.5
      ],
      [
        "<0x58>",
        -127.5
      ],
      [
        "<0x59>",
        -127.5
      ],
      [
        "<0x5A>",
        -127.5
      ],
      [
        "<0x5B>",
        -127.5
      ],
      [
        "<0x5C>",
        -127.5
      ],
      [
        "<0x5D>",
        -127.5
      ],
      [
        "<0x5E>",
        -127.5
      ],
      [
        "<0x5F>",
        -127.5
      ],
      [
        "<0x60>",
        -127.5
      ],
      [
        "<0x61>",
        -127.5
      ],
      [
        "<0x62>",
        -127.5
      ],
      [
        "<0x63>",
        -127.5
      ],
      [
        "<0x64>",
        -127.5
      ],
      [
        "<0x65>",
        -127.5
      ],
      [
        "<0x66>",
        -127.5
      ],
      [
        "<0x67>",
        -127.5
      ],
      [
        "<0x68>",
        -127.5
      ],
      [
        "<0x69>",
        -127.5
      ],
      [
        "<0x6A>",
        -127.5
      ],
      [
        "<0x6B>",
        -127.5
      ],
      [
        "<0x6C>",
        -127.5
      ],
      [
        "<0x6D>",
        -127.5
      ],
      [
        "<0x6E>",
        -127.5
      ],
      [
        "<0x6F>",
        -127.5
      ],
      [
        "<0x70>",
        -127.5
      ],
      [
        "<0x71>",
        -127.5
      ],
      [
        "<0x72>",
        -127.5
      ],
      [
        "<0x73>",
        -127.5
      ],
      [
        "<0x74>",
        -127.5
      ],
      [
        "<0x75>",
        -127.5
      ],
      [
        "<0x76>",
        -127.5
      ],
      [
        "<0x77>",
        -127.5
      ],
      [
        "<0x78>",
        -127.5
      ],
      [
        "<0x79>",
        -127.5
      ],
      [
        "<0x7A>",
        -127.5
      ],
      [
        "<0x7B>",
        -127.5
      ],
      [
        "<0x7C>",
        -127.5
      ],
      [
        "<0x7D>",
        -127.5
      ],
      [
        "<0x7E>",
        -127.5
      ],
      [
        "<0x7F>",
        -127.5
      ],
      [
        "<0x80>",
        -127.5
      ],
      [
        "<0x81>",
        -127.5
      ],
      [
        "<0x82>",
        -127.5
      ],
      [
        "<0x83>",
        -127.5
      ],
      [
        "<0x84>",
        -127.5
      ],
      [
        "<0x85>",
        -127.5
      ],
      [
        "<0x86>",
        -127.5
      ],
      [
        "<0x87>",
        -127.5
      ],
      [
        "<0x88>",
        -127.5
      ],
      [
        "<0x89>",
        -127.5
      ],
      [
        "<0x8A>",
        -127.5
      ],
      [
        "<0x8B>",
        -127.5
      ],
      [
        "<0x8C>",
        -127.5
      ],
      [
        "<0x8D>",
        -127.5
      ],
      [
        "<0x8E>",
        -127.5
      ],
      [
        "<0x8F>",
        -127.5
      ],
      [
        "<0x90>",
        -127.5
      ],
      [
        "<0x91>",
        -127.5
      ],
      [
        "<0x92>",
        -127.5
      ],
      [
        "<0x93>",
        -127.5
      ],
      [
        "<0x94>",
        -127.5
      ],
      [
        "<0x95>",
        -127.5
      ],
      [
        "<0x96>",
        -127.5
      ],
      [
        "<0x97>",
        -127.5
      ],
      [
        "<0x98>",
        -127.5
      ],
      [
        "<0x99>",
        -127.5
      ],
      [
        "<0x9A>",
        -127.5
      ],
      [
        "<0x9B>",
        -127.5
      ],
      [
        "<0x9C>",
        -127.5
      ],
      [
        "<0x9D>",
        -127.5
      ],
      [
        "<0x9E>",
        -127.5
      ],
      [
        "<0x9F>",
        -127.5
      ],
      [
        "<0xA0>",
        -127.5
      ],
      [
        "<0xA1>",
        -127.5
      ],
      [
        "<0xA2>",
        -127.5
      ],
      [
        "<0xA3>",
        -127.5
      ],
      [
        "<0xA4>",
        -127.5
      ],
      [
        "<0xA5>",
        -127.5
      ],
      [
        "<0xA6>",
        -127.5
      ],
      [
        "<0xA7>",
        -127.5
      ],
      [
        "<0xA8>",
        -127.5
      ],
      [
        "<0xA9>",
        -127.5
      ],
      [
        "<0xAA>",
        -127.5
      ],
      [
        "<0xAB>",
        -127.5
      ],
      [
        "<0xAC>",
        -127.5
      ],
      [
        "<0xAD>",
        -127.5
      ],
      [
        "<0xAE>",
        -127.5
      ],
      [
        "<0xAF>",
        -127.5
      ],
      [
        "<0xB0>",
        -127.5
      ],
      [
        "<0xB1>",
        -127.5
      ],
      [
        "<0xB2>",
        -127.5
      ],
      [
        "<0xB3>",
        -127.5
      ],
      [
        "<0xB4>",
        -127.5
      ],
      [
        "<0xB5>",
        -127.5
      ],
      [
        "<0xB6>",
        -127.5
      ],
      [
        "<0xB7>",
        -127.5
      ],
      [
        "<0xB8>",
        -127.5
      ],
      [
        "<0xB9>",
        -127.5
      ],
      [
        "<0xBA>",
        -127.5
      ],
      [
        "<0xBB>",
        -127.5
      ],
      [
        "<0xBC>",
        -127.5
      ],
      [
        "<0xBD>",
        -127.5
      ],
      [
        "<0xBE>",
        -127.5
      ],
      [
        "<0xBF>",
        -127.5
      ],
      [
        "<0xC0>",
        -127.5
      ],
      [
        "<0xC1>",
        -127.5
      ],
      [
        "<0xC2>",
        -127.5
      ],
      [
        "<0xC3>",
        -127.5
      ],
      [
        "<0xC4>",
        -127.5
      ],
      [
        "<0xC5>",
        -127.5
      ],
      [
        "<0xC6>",
        -127.5
      ],
      [
        "<0xC7>",
        -127.5
      ],
      [
        "<0xC8>",
        -127.5
      ],
      [
        "<0xC9>",
        -127.5
      ],
      [
        "<0xCA>",
        -127.5
      ],
      [
        "<0xCB>",
        -127.5
      ],
      [
        "<0xCC>",
        -127.5
      ],
      [
        "<0xCD>",
        -127.5
      ],
      [
        "<0xCE>",
        -127.5
      ],
      [
        "<0xCF>",
        -127.5
      ],
      [
        "<0xD0>",
        -127.5
      ],
      [
        "<0xD1>",
        -127.5
      ],
      [
        "<0xD2>",
        -127.5
      ],
      [
        "<0xD3>",
        -127.5
      ],
      [
        "<0xD4>",
        -127.5
      ],
      [
        "<0xD5>",
        -127.5
      ],
      [
        "<0xD6>",
        -127.5
      ],
      [
        "<0xD7>",
        -127.5
      ],
      [
        "<0xD8>",
        -127.5
      ],
      [
        "<0xD9>",
        -127.5
      ],
      [
        "<0xDA>",
        -127.5
      ],
      [
        "<0xDB>",
        -127.5
      ],
      [
        "<0xDC>",
        -127.5
      ],
      [
        "<0xDD>",
        -127.5
      ],
      [
        "<0xDE>",
        -127.5
      ],
      [
        "<0xDF>",
        -127.5
      ],
      [
        "<0xE0>",
        -127.5
      ],
      [
        "<0xE1>",
        -127.5
      ],
      [
        "<0xE2>",
        -127.5
      ],
      [
        "<0xE3>",
        -127.5
      ],
      [
        "<0xE4>",
        -127.5
      ],
      [
        "<0xE5>",
        -127.5
      ],
      [
        "<0xE6>",
        -127.5
      ],
      [
        "<0xE7>",
        -127.5
      ],
      [
        "<0xE8>",
        -127.5
      ],
      [
        "<0xE9>",
        -127.5
      ],
      [
        "<0xEA>",
        -127.5
      ],
      [
        "<0xEB>",
        -127.5
      ],
      [
        "<0xEC>",
        -127.5
      ],
      [
        "<0xED>",
        -127.5
      ],
      [
        "<0xEE>",
        -127.5
      ],
      [
        "<0xEF>",
        -127.5
      ],
      [
        "<0xF0>",
        -127.5
      ],
      [
        "<0xF1>",
        -127.5
      ],
      [
        "<0xF2>",
        -127.5
      ],
      [
        "<0xF3>",
        -127.5
      ],
      [
        "<0xF4>",
        -127.5
      ],
      [
        "<0xF5>",
        -127.5
      ],
      [
        "<0xF6>",
        -127.5
      ],
      [
        "<0xF7>",
        -127.5
      ],
      [
        "<0xF8>",
        -127.5
      ],
      [
        "<0xF9>",
        -127.5
      ],
      [
        "<0xFA>",
        -127.5
      ],
      [
        "<0xFB>",
        -127.5
      ],
      [
        "<0xFC>",
        -127.5
      ],
      [
        "<0xFD>",
        -127.5
      ],
      [
        "<0xFE>",
        -127.5
      ],
      [
        "<0xFF>",
        -127.5
      ],
      [
        "▁▁▁▁▁▁▁▁▁▁▁▁▁▁▁▁",
        -127.5
      ],
      [
        "▁▁▁▁▁▁▁▁▁▁▁▁▁▁▁",
        -120.0
      ],
      [
        "▁▁▁▁▁▁▁▁▁▁▁▁▁▁",
        -112.5
      ],
      [
        "▁▁▁▁▁▁▁▁▁▁▁▁▁",
        -105.0
      ],
      [
        "▁▁▁▁▁▁▁▁▁▁▁▁",
        -97.5
      ],
      [
        "▁▁▁▁▁▁▁▁▁▁▁",
        -90.0
      ],
      [
        "▁▁▁▁▁▁▁▁▁▁",
        -82.5
      ],
      [
        "▁▁▁▁▁▁▁▁▁",
        -75.0
      ],
      [
        "▁▁▁▁▁▁▁▁",
        -67.5
      ],
      [
        "▁▁▁▁▁▁▁",
        -60.0
      ],
      [
        "▁▁▁▁▁▁",
        -52.5
      ],
      [
        "▁▁▁▁▁",
        -45.0
      ],
      [
        "▁▁▁▁",
        -37.5
      ],
      [
        "▁▁▁",
        -30.0
      ],
      [
        "▁▁",
        -22.5
      ],
      [
        "▁",
        -15.0
      ],
      [
        "▁t",
        -14.271353721618652
      ],
      [
        "in",
        -12.23575210571289
      ],
      [
        "er",
        -12.549239158630373
      ],
      [
        "▁a",
        -10.476987838745115
      ],
      [
        "he",
        -16.334875106811523
      ],
      [
        "on",
        -13.49368953704834
      ],
      [
        "re",
        -13.244486808776855
      ],
      [
        "▁s",
        -14.330401420593262
      ],
      [
        "en",
        -13.974600791931152
      ],
      [
        "at",
        -14.279979705810549
      ],
      [
        "or",
        -13.143909454345703
      ],
      [
        "▁the",
        -8.827887535095215
      ],
      [
        "es",
        -13.091790199279783
      ],
      [
        "▁w",
        -14.787775993347168
      ],
      [
        "an",
        -13.89495086669922
      ],
      [
        "▁c",
        -13.423583030700684
      ],
      [
        "is",
        -12.79513931274414
      ],
      [
        "it",
        -14.094783782958984
      ],
      [
        "ou",
        -16.37955093383789
      ],
      [
        "▁d",
        -14.508743286132812
      ],
      [
        "al",
        -12.915352821350098
      ],
      [
        "ar",
        -14.679823875427246
      ],
      [
        "▁p",
        -12.977190971374512
      ],
      [
        "▁f",
        -13.762650489807127
      ],
      [
        "ed",
        -11.711274147033691
      ],
      [
        "▁b",
        -13.579636573791504
      ],
      [
        "ing",
        -11.415538787841797
      ],
      [
        "▁o",
        -15.969791412353516
      ],
      [
        "▁m",
        -12.96363639831543
      ],
      [
        "le",
        -13.896940231323242
      ],
      [
        "nd",
        -15.126522064208984
      ],
      [
        "as",
        -14.074776649475098
      ],
      [
        "ic",
        -13.662175178527832
      ],
      [
        "▁h",
        -15.06927490234375
      ],
      [
        "ion",
        -14.180055618286133
      ],
      [
        "▁in",
        -9.731870651245115
      ],
      [
        "▁to",
        -9.510702133178713
      ],
      [
        "et",
        -14.923542976379396
      ],
      [
        "om",
        -15.74830436706543
      ],
      [
        "el",
        -14.303586959838867
      ],
      [
        "▁of",
        -9.22927474975586
      ],
      [
        "st",
        -13.74106502532959
      ],
      [
        "▁and",
        -9.522154808044434
      ],
      [
        "▁l",
        -14.053743362426758
      ],
      [
        "▁th",
        -18.632246017456055
      ],
      [
        "▁n",
        -13.360807418823242
      ],
      [
        "ent",
        -14.670188903808594
      ],
      [
        "il",
        -14.756152153015137
      ],
      [
        "ct",
        -15.987646102905272
      ],
      [
        "ro",
        -14.48134422302246
      ],
      [
        "▁re",
        -14.272871017456056
      ],
      [
        "id",
        -12.132418632507324
      ],
      [
        "am",
        -14.454682350158691
      ],
      [
        "▁I",
        -11.41254711151123
      ],
      [
        "ad",
        -14.787270545959473
      ],
      [
        "▁e",
        -14.472704887390137
      ],
      [
        "▁S",
        -12.272910118103027
      ],
      [
        "▁g",
        -14.136346817016602
      ],
      [
        "▁T",
        -12.288324356079102
      ],
      [
        "im",
        -14.63034439086914
      ],
      [
        "ot",
        -15.368738174438477
      ],
      [
        "ac",
        -14.723322868347168
      ],
      [
        "ur",
        -15.20199489593506
      ],
      [
        "▁(",
        -8.257060050964355
      ],
      [
        "ig",
        -15.769143104553224
      ],
      [
        "▁=",
        -8.745301246643066
      ],
      [
        "ol",
        -15.438348770141602
      ],
      [
        "ut",
        -15.591109275817873
      ],
      [
        "▁A",
        -11.634428024291992
      ],
      [
        "se",
        -15.072351455688477
      ],
      [
        "▁u",
        -14.45030403137207
      ],
      [
        "ve",
        -14.686911582946776
      ],
      [
        "▁C",
        -12.055556297302246
      ],
      [
        "if",
        -10.160680770874023
      ],
      [
        "ow",
        -16.615936279296875
      ],
      [
        "▁y",
        -14.699572563171388
      ],
      [
        "ch",
        -13.815089225769045
      ],
      [
        "ay",
        -15.384411811828612
      ],
      [
        "▁de",
        -14.000746726989746
      ],
      [
        "▁st",
        -15.675238609313965
      ],
      [
        "▁|",
        -8.715177536010742
      ],
      [
        "ver",
        -15.655336380004885
      ],
      [
        ");",
        -8.967610359191895
      ],
      [
        "▁\"",
        -10.291969299316406
      ],
      [
        "ly",
        -13.082318305969238
      ],
      [
        "▁be",
        -11.491095542907717
      ],
      [
        "**",
        -16.22397232055664
      ],
      [
        "▁is",
        -10.26805019378662
      ],
      [
        "od",
        -15.855222702026367
      ],
      [
        "▁M",
        -12.783489227294922
      ],
      [
        "ation",
        -12.917966842651367
      ],
      [
        "ul",
        -14.854619979858398
      ],
      [
        "▁for",
        -10.188521385192873
      ],
      [
        "▁on",
        -10.960883140563965
      ],
      [
        "ag",
        -16.295289993286133
      ],
      [
        "ce",
        -14.964981079101562
      ],
      [
        "ter",
        -15.142597198486328
      ],
      [
        "ir",
        -15.352093696594238
      ],
      [
        "th",
        -14.198561668395996
      ],
      [
        "▁v",
        -13.565771102905272
      ],
      [
        "qu",
        -15.630537033081056
      ],
      [
        "▁B",
        -12.551410675048828
      ],
      [
        "em",
        -15.33677577972412
      ],
      [
        "▁P",
        -12.565868377685549
      ],
      [
        "▁you",
        -11.919692039489746
      ],
      [
        "▁that",
        -11.1770601272583
      ],
      [
        "un",
        -13.941408157348633
      ],
      [
        "▁{",
        -7.86875581741333
      ],
      [
        "ith",
        -16.79476547241211
      ],
      [
        "ri",
        -15.452868461608888
      ],
      [
        "est",
        -14.643592834472656
      ],
      [
        "ab",
        -15.349303245544434
      ],
      [
        "--",
        -15.82237720489502
      ],
      [
        "ap",
        -14.504660606384276
      ],
      [
        "▁it",
        -11.695255279541016
      ],
      [
        "▁con",
        -17.040258407592773
      ],
      [
        "ate",
        -13.809802055358888
      ],
      [
        "us",
        -13.498991012573242
      ],
      [
        "▁H",
        -12.937939643859863
      ],
      [
        "um",
        -13.86802101135254
      ],
      [
        "▁D",
        -12.745272636413574
      ],
      [
        "os",
        -14.243746757507324
      ],
      [
        "pe",
        -15.827712059020996
      ],
      [
        "▁-",
        -8.429261207580566
      ],
      [
        "▁wh",
        -18.600000381469727
      ],
      [
        "▁al",
        -15.305846214294434
      ],
      [
        "▁as",
        -11.65586280822754
      ],
      [
        "and",
        -14.405556678771973
      ],
      [
        "ist",
        -14.204933166503906
      ],
      [
        "▁L",
        -12.762410163879396
      ],
      [
        "▁W",
        -13.359895706176758
      ],
      [
        "▁with",
        -11.11266803741455
      ],
      [
        "▁an",
        -12.535686492919922
      ],
      [
        "ere",
        -17.46778678894043
      ],
      [
        "▁*",
        -8.275581359863281
      ],
      [
        "▁R",
        -13.103229522705078
      ],
      [
        "▁he",
        -13.683086395263672
      ],
      [
        "▁F",
        -13.160673141479492
      ],
      [
        "oc",
        -15.333802223205566
      ],
      [
        "▁was",
        -12.093619346618652
      ],
      [
        "ers",
        -12.857208251953123
      ],
      [
        "ke",
        -15.40917682647705
      ],
      [
        "out",
        -13.227290153503418
      ],
      [
        "ht",
        -16.567493438720703
      ],
      [
        "▁r",
        -14.033761978149414
      ],
      [
        "ess",
        -16.528295516967773
      ],
      [
        "op",
        -13.910710334777832
      ],
      [
        "res",
        -13.96219539642334
      ],
      [
        "ie",
        -14.405303955078123
      ],
      [
        "▁E",
        -13.040586471557615
      ],
      [
        "▁\\",
        -11.356379508972168
      ],
      [
        "▁The",
        -10.64826774597168
      ],
      [
        "end",
        -12.188580513000488
      ],
      [
        "ld",
        -15.331113815307615
      ],
      [
        "▁N",
        -13.13174533843994
      ],
      [
        "ort",
        -16.972557067871094
      ],
      [
        "▁G",
        -12.976234436035156
      ],
      [
        "//",
        -11.934821128845217
      ],
      [
        "▁#",
        -8.48451042175293
      ],
      [
        "our",
        -15.701887130737305
      ],
      [
        "te",
        -15.52684211730957
      ],
      [
        "ill",
        -15.505603790283203
      ],
      [
        "ain",
        -15.944782257080078
      ],
      [
        "▁se",
        -17.63644790649414
      ],
      [
        "▁$",
        -13.13415241241455
      ],
      [
        "▁pro",
        -16.97711181640625
      ],
      [
        "ore",
        -15.940287590026855
      ],
      [
        "▁com",
        -17.53948974609375
      ],
      [
        "ame",
        -16.685617446899414
      ],
      [
        "tr",
        -14.987163543701172
      ],
      [
        "▁ne",
        -19.155078887939453
      ],
      [
        "rom",
        -16.904617309570312
      ],
      [
        "ub",
        -16.488279342651367
      ],
      [
        "▁at",
        -11.34990406036377
      ],
      [
        "▁ex",
        -16.514610290527344
      ],
      [
        "ant",
        -14.598615646362305
      ],
      [
        "ue",
        -15.577638626098633
      ],
      [
        "▁or",
        -11.817031860351562
      ],
      [
        "▁}",
        -7.875744342803955
      ],
      [
        "art",
        -15.959254264831545
      ],
      [
        "ction",
        -18.33048439025879
      ],
      [
        "▁k",
        -14.101801872253418
      ],
      [
        "pt",
        -14.89303493499756
      ],
      [
        "nt",
        -15.465457916259766
      ],
      [
        "iv",
        -15.53184986114502
      ],
      [
        "de",
        -14.13947582244873
      ],
      [
        "▁O",
        -13.696980476379396
      ],
      [
        "pl",
        -15.538158416748049
      ],
      [
        "urn",
        -18.689512252807617
      ],
      [
        "ight",
        -16.561920166015625
      ],
      [
        "all",
        -15.042499542236328
      ],
      [
        "▁this",
        -11.382612228393556
      ],
      [
        "ser",
        -16.924882888793945
      ],
      [
        "ave",
        -16.970434188842773
      ],
      [
        "▁not",
        -11.946259498596191
      ],
      [
        "▁are",
        -11.595661163330078
      ],
      [
        "▁j",
        -14.513477325439451
      ],
      [
        "▁le",
        -17.278703689575195
      ],
      [
        "iz",
        -16.177501678466797
      ],
      [
        "▁'",
        -13.047191619873049
      ],
      [
        "age",
        -14.605324745178224
      ],
      [
        "ment",
        -14.419310569763184
      ],
      [
        "▁tr",
        -17.650705337524414
      ],
      [
        "ack",
        -15.72287654876709
      ],
      [
        "ust",
        -16.546056747436523
      ],
      [
        "()",
        -11.924307823181152
      ],
      [
        "->",
        -9.78674030303955
      ],
      [
        "ity",
        -14.15326690673828
      ],
      [
        "ine",
        -14.248199462890623
      ],
      [
        "ould",
        -19.315330505371097
      ],
      [
        "▁J",
        -13.60565185546875
      ],
      [
        "og",
        -16.2236270904541
      ],
      [
        "▁from",
        -11.332157135009766
      ],
      [
        "▁we",
        -12.604938507080078
      ],
      [
        "ell",
        -15.657655715942385
      ],
      [
        "▁sh",
        -16.653329849243164
      ],
      [
        "▁en",
        -15.924298286437988
      ],
      [
        "ure",
        -14.978215217590332
      ],
      [
        "port",
        -14.176072120666504
      ],
      [
        "▁ch",
        -16.260997772216797
      ],
      [
        "ne",
        -14.605653762817385
      ],
      [
        "▁by",
        -10.714344024658203
      ],
      [
        "per",
        -14.956921577453612
      ],
      [
        "ard",
        -15.33371925354004
      ],
      [
        "ass",
        -16.557432174682617
      ],
      [
        "ge",
        -15.236739158630373
      ],
      [
        "ak",
        -15.055696487426758
      ],
      [
        "are",
        -16.02509117126465
      ],
      [
        "ok",
        -15.042235374450684
      ],
      [
        "av",
        -15.557449340820312
      ],
      [
        "ive",
        -14.249221801757812
      ],
      [
        "ff",
        -15.157715797424316
      ],
      [
        "ies",
        -14.066520690917969
      ],
      [
        "ath",
        -16.245840072631836
      ],
      [
        "turn",
        -18.54241180419922
      ],
      [
        "▁U",
        -13.284334182739258
      ],
      [
        "int",
        -11.132135391235352
      ],
      [
        "----",
        -17.595537185668945
      ],
      [
        "▁im",
        -17.328996658325195
      ],
      [
        "ost",
        -17.28145408630371
      ],
      [
        "ial",
        -15.5166015625
      ],
      [
        "▁have",
        -12.177964210510254
      ],
      [
        "ind",
        -16.162431716918945
      ],
      [
        "ip",
        -14.426508903503418
      ],
      [
        "ans",
        -15.934279441833496
      ],
      [
        "xt",
        -17.846189498901367
      ],
      [
        "▁do",
        -13.078259468078612
      ],
      [
        "cl",
        -14.72415828704834
      ],
      [
        "▁if",
        -11.331958770751951
      ],
      [
        "con",
        -15.722169876098633
      ],
      [
        "ia",
        -13.643153190612791
      ],
      [
        "▁his",
        -13.546401977539062
      ],
      [
        "ult",
        -17.438554763793945
      ],
      [
        "rou",
        -19.44184112548828
      ],
      [
        "▁su",
        -18.44898796081543
      ],
      [
        "ra",
        -14.471322059631348
      ],
      [
        "▁un",
        -14.367484092712402
      ],
      [
        "able",
        -13.49166488647461
      ],
      [
        "▁<",
        -10.734512329101562
      ],
      [
        "▁K",
        -13.188469886779783
      ],
      [
        "ome",
        -17.350980758666992
      ],
      [
        "▁qu",
        -18.239665985107425
      ],
      [
        "get",
        -12.60548973083496
      ],
      [
        "▁me",
        -14.037755012512209
      ],
      [
        "ast",
        -16.014856338500977
      ],
      [
        "ect",
        -17.168663024902344
      ],
      [
        "▁##",
        -10.748205184936523
      ],
      [
        "to",
        -13.208799362182615
      ],
      [
        "▁cl",
        -16.465364456176758
      ],
      [
        "▁ab",
        -18.059307098388672
      ],
      [
        "ice",
        -15.735942840576172
      ],
      [
        "ire",
        -16.32964515686035
      ],
      [
        "ber",
        -16.062957763671875
      ],
      [
        "one",
        -14.897842407226562
      ],
      [
        "ich",
        -16.81045150756836
      ],
      [
        "hen",
        -17.553499221801758
      ],
      [
        "▁can",
        -12.355705261230469
      ],
      [
        "▁Th",
        -16.308704376220703
      ],
      [
        "▁la",
        -16.225656509399414
      ],
      [
        "▁all",
        -12.580985069274902
      ],
      [
        "ime",
        -17.27613639831543
      ],
      [
        "ile",
        -15.802682876586914
      ],
      [
        "ide",
        -15.446232795715332
      ],
      [
        "\",",
        -11.614870071411133
      ],
      [
        "▁pl",
        -17.166065216064453
      ],
      [
        "▁V",
        -13.20461082458496
      ],
      [
        "ru",
        -16.019912719726562
      ],
      [
        "orm",
        -19.0145263671875
      ],
      [
        "▁had",
        -13.996244430541992
      ],
      [
        "ud",
        -16.095643997192383
      ],
      [
        "ase",
        -16.325258255004883
      ],
      [
        "ord",
        -16.75279426574707
      ],
      [
        "),",
        -12.195761680603027
      ],
      [
        "▁her",
        -14.373809814453123
      ],
      [
        "▁In",
        -12.5751953125
      ],
      [
        "ace",
        -16.885406494140625
      ],
      [
        "▁but",
        -12.930963516235352
      ],
      [
        "ata",
        -15.586162567138672
      ],
      [
        "::",
        -11.661191940307615
      ],
      [
        "****",
        -17.74251937866211
      ],
      [
        "ong",
        -15.73301887512207
      ],
      [
        "▁&",
        -11.218847274780272
      ],
      [
        "..",
        -14.773303031921388
      ],
      [
        "ite",
        -15.013422012329102
      ],
      [
        "ype",
        -19.994993209838867
      ],
      [
        "act",
        -15.810649871826172
      ],
      [
        "ode",
        -17.323196411132812
      ],
      [
        "▁your",
        -12.49749755859375
      ],
      [
        "▁out",
        -12.676899909973145
      ],
      [
        "▁go",
        -14.836563110351562
      ],
      [
        "lic",
        -16.73390769958496
      ],
      [
        "ally",
        -15.87045669555664
      ],
      [
        "▁so",
        -13.259720802307127
      ],
      [
        "ork",
        -18.34225845336914
      ],
      [
        "au",
        -15.71015739440918
      ],
      [
        "▁up",
        -13.211295127868652
      ],
      [
        "▁_",
        -14.170415878295898
      ],
      [
        "ll",
        -14.282270431518556
      ],
      [
        "==",
        -15.532682418823242
      ],
      [
        "▁my",
        -13.37520694732666
      ],
      [
        "pp",
        -15.184682846069336
      ],
      [
        "cc",
        -15.110291481018066
      ],
      [
        "▁//",
        -9.361260414123535
      ],
      [
        "▁they",
        -13.448822021484377
      ],
      [
        "gh",
        -17.750856399536133
      ],
      [
        "▁us",
        -14.60240650177002
      ],
      [
        "ib",
        -15.958788871765137
      ],
      [
        "ions",
        -15.923626899719238
      ],
      [
        "ach",
        -15.598566055297852
      ],
      [
        "ens",
        -15.95790195465088
      ],
      [
        "▁ar",
        -18.339214324951172
      ],
      [
        "ob",
        -15.620168685913086
      ],
      [
        "elf",
        -17.796403884887695
      ],
      [
        "ook",
        -18.39780044555664
      ],
      [
        "ated",
        -14.348882675170898
      ],
      [
        "ang",
        -15.261360168457031
      ],
      [
        "ign",
        -17.299375534057617
      ],
      [
        "▁return",
        -11.662069320678713
      ],
      [
        "▁res",
        -15.38347339630127
      ],
      [
        "ck",
        -15.589031219482422
      ],
      [
        "ous",
        -15.592452049255373
      ],
      [
        "ст",
        -20.80360412597656
      ],
      [
        ").",
        -13.339445114135742
      ],
      [
        "▁п",
        -22.3190975189209
      ],
      [
        ".\"",
        -14.25558376312256
      ],
      [
        "на",
        -19.03761863708496
      ],
      [
        "▁i",
        -12.420708656311035
      ],
      [
        "ail",
        -16.295024871826172
      ],
      [
        "ep",
        -15.281326293945312
      ],
      [
        "▁ad",
        -17.065078735351562
      ],
      [
        "ance",
        -14.930888175964355
      ],
      [
        "(\"",
        -12.595085144042969
      ],
      [
        "▁**",
        -12.757353782653809
      ],
      [
        "ther",
        -17.176010131835938
      ],
      [
        "ake",
        -16.169694900512695
      ],
      [
        "▁will",
        -12.400269508361816
      ],
      [
        "▁comp",
        -17.650360107421875
      ],
      [
        "▁one",
        -12.921632766723633
      ],
      [
        "▁get",
        -12.928985595703123
      ],
      [
        "ov",
        -15.896074295043944
      ],
      [
        "▁Y",
        -14.088438987731934
      ],
      [
        "ary",
        -14.251301765441896
      ],
      [
        "ock",
        -16.74672508239746
      ],
      [
        "▁she",
        -14.825138092041016
      ],
      [
        "che",
        -17.079301834106445
      ],
      [
        "ft",
        -15.952208518981934
      ],
      [
        "▁new",
        -12.95016384124756
      ],
      [
        "▁des",
        -17.015047073364258
      ],
      [
        "▁li",
        -18.30848503112793
      ],
      [
        "ence",
        -15.229058265686035
      ],
      [
        "▁sa",
        -17.265439987182617
      ],
      [
        "ress",
        -17.059619903564453
      ],
      [
        "▁el",
        -17.655893325805664
      ],
      [
        "▁und",
        -17.624095916748047
      ],
      [
        "eg",
        -16.510889053344727
      ],
      [
        "fer",
        -16.797863006591797
      ],
      [
        "ry",
        -14.73183250427246
      ],
      [
        "ear",
        -16.893230438232422
      ],
      [
        "ose",
        -16.76560401916504
      ],
      [
        "very",
        -19.16795539855957
      ],
      [
        "',",
        -15.715739250183104
      ],
      [
        "▁+",
        -12.38581371307373
      ],
      [
        "▁в",
        -17.536209106445312
      ],
      [
        "▁He",
        -13.805970191955566
      ],
      [
        "ublic",
        -25.829240798950195
      ],
      [
        "▁their",
        -13.401538848876951
      ],
      [
        "ize",
        -15.199642181396484
      ],
      [
        "▁were",
        -13.784127235412598
      ],
      [
        "ink",
        -16.937156677246094
      ],
      [
        "own",
        -17.617158889770508
      ],
      [
        "In",
        -13.855462074279783
      ],
      [
        "{\\",
        -16.7852840423584
      ],
      [
        "▁has",
        -12.606159210205078
      ],
      [
        "▁per",
        -15.100597381591797
      ],
      [
        "▁It",
        -13.490105628967283
      ],
      [
        "▁St",
        -14.280299186706545
      ],
      [
        "her",
        -16.391965866088867
      ],
      [
        "ject",
        -18.459386825561523
      ],
      [
        "ра",
        -19.40079116821289
      ],
      [
        "ild",
        -19.175031661987305
      ],
      [
        "so",
        -15.862541198730469
      ],
      [
        "▁sp",
        -15.896849632263184
      ],
      [
        "ни",
        -19.43497657775879
      ],
      [
        "du",
        -16.038738250732422
      ],
      [
        "row",
        -15.300890922546388
      ],
      [
        "alue",
        -24.035045623779297
      ],
      [
        "set",
        -12.62271785736084
      ],
      [
        "form",
        -16.620805740356445
      ],
      [
        "com",
        -15.566568374633787
      ],
      [
        "▁man",
        -16.0804443359375
      ],
      [
        "ont",
        -18.273361206054688
      ],
      [
        "ull",
        -16.56642723083496
      ],
      [
        "▁cont",
        -17.848209381103516
      ],
      [
        "▁more",
        -12.685669898986816
      ],
      [
        "ick",
        -16.121238708496094
      ],
      [
        "▁would",
        -13.87547206878662
      ],
      [
        "▁ev",
        -17.707855224609375
      ],
      [
        "▁about",
        -13.033164978027344
      ],
      [
        "ition",
        -16.229883193969727
      ],
      [
        "▁z",
        -15.472023963928224
      ],
      [
        "ound",
        -17.86908721923828
      ],
      [
        "ree",
        -17.11082649230957
      ],
      [
        "▁Ch",
        -15.114185333251951
      ],
      [
        "▁which",
        -13.05780029296875
      ],
      [
        "io",
        -13.749082565307615
      ],
      [
        "();",
        -11.487582206726074
      ],
      [
        "▁who",
        -13.702898979187012
      ],
      [
        "err",
        -13.6421537399292
      ],
      [
        "ory",
        -16.47941017150879
      ],
      [
        "ount",
        -19.360902786254883
      ],
      [
        "ations",
        -14.45354461669922
      ],
      [
        "▁с",
        -19.959766387939453
      ],
      [
        "ring",
        -15.788337707519531
      ],
      [
        "</",
        -15.332979202270508
      ],
      [
        "▁fe",
        -18.529293060302734
      ],
      [
        "ко",
        -19.97075843811035
      ],
      [
        "но",
        -19.9416446685791
      ],
      [
        "▁dis",
        -15.62300968170166
      ],
      [
        "ma",
        -14.562257766723633
      ],
      [
        "▁them",
        -14.070771217346191
      ],
      [
        "▁any",
        -13.531679153442385
      ],
      [
        "▁no",
        -13.332684516906738
      ],
      [
        "--------",
        -18.26380920410156
      ],
      [
        "▁pre",
        -15.823663711547852
      ],
      [
        "▁te",
        -18.700496673583984
      ],
      [
        "▁ro",
        -18.447620391845703
      ],
      [
        "▁him",
        -15.198957443237305
      ],
      [
        "▁:",
        -11.502606391906738
      ],
      [
        "up",
        -13.86768913269043
      ],
      [
        "▁int",
        -10.960190773010254
      ],
      [
        "▁ag",
        -19.520654678344727
      ],
      [
        "St",
        -16.041547775268555
      ],
      [
        "ark",
        -17.553604125976562
      ],
      [
        "ex",
        -14.549792289733888
      ],
      [
        "ph",
        -16.102386474609375
      ],
      [
        "ient",
        -16.522062301635742
      ],
      [
        "ely",
        -18.68321990966797
      ],
      [
        "▁pr",
        -17.583147048950195
      ],
      [
        "ER",
        -13.73946762084961
      ],
      [
        "▁import",
        -17.129276275634766
      ],
      [
        "▁time",
        -13.149608612060549
      ],
      [
        "ро",
        -19.38506507873535
      ],
      [
        "pro",
        -16.50853157043457
      ],
      [
        "User",
        -16.214839935302734
      ],
      [
        "lo",
        -15.157377243041992
      ],
      [
        "▁/",
        -12.802682876586914
      ],
      [
        "▁[",
        -11.825119018554688
      ],
      [
        "ors",
        -15.09632682800293
      ],
      [
        "=\"",
        -13.379600524902344
      ],
      [
        "▁there",
        -13.631604194641112
      ],
      [
        "▁like",
        -13.669341087341309
      ],
      [
        "old",
        -15.050332069396973
      ],
      [
        "▁when",
        -13.310624122619627
      ],
      [
        "vers",
        -17.306201934814453
      ],
      [
        "▁some",
        -13.81202507019043
      ],
      [
        "ings",
        -15.497465133666992
      ],
      [
        "))",
        -12.534497261047363
      ],
      [
        "▁part",
        -14.6106538772583
      ],
      [
        "ical",
        -14.245892524719238
      ],
      [
        "▁fun",
        -16.210695266723633
      ],
      [
        "▁kn",
        -18.962785720825195
      ],
      [
        "ays",
        -18.27734375
      ],
      [
        "ier",
        -15.5347318649292
      ],
      [
        "▁been",
        -13.517075538635254
      ],
      [
        "ove",
        -17.576662063598633
      ],
      [
        "▁sc",
        -16.1527156829834
      ],
      [
        "ian",
        -13.761185646057127
      ],
      [
        "▁over",
        -13.869672775268556
      ],
      [
        "iel",
        -17.797508239746094
      ],
      [
        "▁pe",
        -17.64119529724121
      ],
      [
        "rib",
        -18.46946907043457
      ],
      [
        "put",
        -15.267858505249023
      ],
      [
        "ec",
        -15.321852684020996
      ],
      [
        "eth",
        -16.364076614379883
      ],
      [
        "aram",
        -19.30278778076172
      ],
      [
        "app",
        -15.741022109985352
      ],
      [
        "▁–",
        -12.198833465576172
      ],
      [
        "▁stat",
        -17.51790428161621
      ],
      [
        "pon",
        -17.780073165893555
      ],
      [
        "▁what",
        -13.770989418029783
      ],
      [
        "ption",
        -18.568944931030273
      ],
      [
        "we",
        -16.284223556518555
      ],
      [
        "ade",
        -16.054244995117188
      ],
      [
        "▁work",
        -13.99285888671875
      ],
      [
        "text",
        -14.480491638183594
      ],
      [
        "▁said",
        -13.922281265258787
      ],
      [
        "▁###",
        -10.53590488433838
      ],
      [
        "IN",
        -13.42435073852539
      ],
      [
        "▁just",
        -13.856435775756836
      ],
      [
        "irst",
        -21.16878318786621
      ],
      [
        "▁into",
        -13.578142166137695
      ],
      [
        "▁const",
        -11.609338760375977
      ],
      [
        "ource",
        -23.622581481933594
      ],
      [
        "tt",
        -16.202394485473633
      ],
      [
        "ps",
        -14.80253791809082
      ],
      [
        "pr",
        -15.304858207702637
      ],
      [
        "erv",
        -20.03803443908691
      ],
      [
        "itt",
        -17.441387176513672
      ],
      [
        "ug",
        -16.772058486938477
      ],
      [
        "_{",
        -17.54410171508789
      ],
      [
        "ents",
        -17.057451248168945
      ],
      [
        "ish",
        -15.046849250793455
      ],
      [
        "ener",
        -19.291473388671875
      ],
      [
        "▁inter",
        -16.365854263305664
      ],
      [
        "ple",
        -17.771879196166992
      ],
      [
        "oll",
        -17.591585159301758
      ],
      [
        "mer",
        -16.03257179260254
      ],
      [
        "ater",
        -17.88681983947754
      ],
      [
        "ool",
        -18.27119255065918
      ],
      [
        "ef",
        -15.974693298339844
      ],
      [
        "▁public",
        -12.246749877929688
      ],
      [
        "▁other",
        -13.35110569000244
      ],
      [
        "ре",
        -19.87896156311035
      ],
      [
        "▁def",
        -16.908544540405273
      ],
      [
        "▁@",
        -11.199576377868652
      ],
      [
        "го",
        -18.272706985473633
      ],
      [
        "oint",
        -21.197908401489254
      ],
      [
        "▁off",
        -14.686229705810549
      ],
      [
        "oid",
        -16.238676071166992
      ],
      [
        "return",
        -10.11533260345459
      ],
      [
        "▁set",
        -13.285150527954102
      ],
      [
        "wo",
        -18.049251556396484
      ],
      [
        "fter",
        -22.376724243164062
      ],
      [
        "sh",
        -14.527627944946287
      ],
      [
        "********",
        -18.50280380249023
      ],
      [
        "▁our",
        -13.592269897460938
      ],
      [
        "riv",
        -19.434690475463867
      ],
      [
        "iss",
        -16.956287384033203
      ],
      [
        "▁We",
        -13.309647560119627
      ],
      [
        "ng",
        -15.16384506225586
      ],
      [
        "▁ob",
        -17.830699920654297
      ],
      [
        "ss",
        -15.37575340270996
      ],
      [
        "gr",
        -16.54517936706543
      ],
      [
        "▁than",
        -13.850068092346191
      ],
      [
        "pect",
        -20.808502197265625
      ],
      [
        "ied",
        -17.10595703125
      ],
      [
        "sc",
        -14.59063720703125
      ],
      [
        "iew",
        -21.284503936767575
      ],
      [
        "der",
        -15.619091987609863
      ],
      [
        "yst",
        -18.122671127319336
      ],
      [
        "ev",
        -15.606554985046388
      ],
      [
        "▁could",
        -14.569640159606934
      ],
      [
        "ann",
        -17.771888732910156
      ],
      [
        "enc",
        -16.3712158203125
      ],
      [
        "ON",
        -14.335938453674316
      ],
      [
        "ix",
        -15.75251007080078
      ],
      [
        "anc",
        -18.60658264160156
      ],
      [
        "▁also",
        -12.277260780334473
      ],
      [
        "reat",
        -19.068761825561523
      ],
      [
        "▁am",
        -14.739694595336914
      ],
      [
        "▁bec",
        -24.781391143798828
      ],
      [
        "▁и",
        -19.99139976501465
      ],
      [
        "ual",
        -15.622660636901855
      ],
      [
        "pec",
        -19.87846565246582
      ],
      [
        "▁.",
        -15.078497886657717
      ],
      [
        "▁bl",
        -17.194623947143555
      ],
      [
        "lect",
        -17.831947326660156
      ],
      [
        "ople",
        -22.083568572998047
      ],
      [
        "ys",
        -16.73164176940918
      ],
      [
        "▁gr",
        -18.11513328552246
      ],
      [
        "ict",
        -18.081865310668945
      ],
      [
        "ik",
        -16.34493637084961
      ],
      [
        "tring",
        -22.28096580505371
      ],
      [
        "▁This",
        -12.434112548828123
      ],
      [
        "▁back",
        -14.41510772705078
      ],
      [
        "▁о",
        -21.23256492614746
      ],
      [
        "▁fin",
        -19.67097282409668
      ],
      [
        "atch",
        -17.555950164794922
      ],
      [
        "Con",
        -16.502506256103516
      ],
      [
        "('",
        -16.511564254760742
      ],
      [
        "erm",
        -19.386476516723633
      ],
      [
        "▁==",
        -11.591842651367188
      ],
      [
        "__",
        -12.837780952453612
      ],
      [
        "name",
        -12.622836112976074
      ],
      [
        ",\"",
        -14.618924140930176
      ],
      [
        "▁did",
        -15.087552070617676
      ],
      [
        "ise",
        -15.609761238098145
      ],
      [
        "▁only",
        -13.534753799438477
      ],
      [
        "ruct",
        -22.366695404052734
      ],
      [
        "les",
        -15.780380249023438
      ],
      [
        "▁then",
        -14.132997512817385
      ],
      [
        "ause",
        -17.712831497192383
      ],
      [
        "ва",
        -19.741390228271484
      ],
      [
        "▁its",
        -13.768224716186523
      ],
      [
        "rit",
        -17.051740646362305
      ],
      [
        "▁know",
        -14.533865928649902
      ],
      [
        "ield",
        -17.69686508178711
      ],
      [
        "▁class",
        -12.554754257202148
      ],
      [
        "▁>",
        -12.299127578735352
      ],
      [
        "▁em",
        -17.563215255737305
      ],
      [
        "▁$\\",
        -16.1292781829834
      ],
      [
        "▁year",
        -14.530122756958008
      ],
      [
        "wn",
        -18.398164749145508
      ],
      [
        "},",
        -13.226733207702637
      ],
      [
        "▁del",
        -16.888044357299805
      ],
      [
        "ale",
        -15.781710624694824
      ],
      [
        "ty",
        -14.993016242980955
      ],
      [
        "fig",
        -18.097515106201172
      ],
      [
        "sp",
        -14.613625526428224
      ],
      [
        "hed",
        -18.912586212158203
      ],
      [
        "round",
        -17.24976921081543
      ],
      [
        "ew",
        -16.5956974029541
      ],
      [
        "▁di",
        -16.828224182128906
      ],
      [
        "▁der",
        -17.671133041381836
      ],
      [
        "ри",
        -19.36177444458008
      ],
      [
        "red",
        -15.36598014831543
      ],
      [
        "this",
        -14.376193046569824
      ],
      [
        "let",
        -15.80665683746338
      ],
      [
        "RE",
        -14.012527465820312
      ],
      [
        "ax",
        -16.230749130249023
      ],
      [
        "fr",
        -16.119586944580078
      ],
      [
        "essage",
        -24.21946144104004
      ],
      [
        "ough",
        -17.358936309814453
      ],
      [
        "▁comm",
        -18.440269470214844
      ],
      [
        "fo",
        -17.127477645874023
      ],
      [
        "uch",
        -17.99765968322754
      ],
      [
        "oy",
        -16.403215408325195
      ],
      [
        "▁people",
        -12.667319297790527
      ],
      [
        "ystem",
        -22.909950256347656
      ],
      [
        "▁first",
        -13.422981262207031
      ],
      [
        "▁function",
        -13.67225170135498
      ],
      [
        "ange",
        -18.995304107666016
      ],
      [
        "▁how",
        -14.172870635986328
      ],
      [
        "▁et",
        -16.693361282348633
      ],
      [
        "ah",
        -15.595890045166016
      ],
      [
        "▁look",
        -15.16081714630127
      ],
      [
        "то",
        -19.717845916748047
      ],
      [
        "und",
        -17.08201026916504
      ],
      [
        "▁under",
        -13.769013404846191
      ],
      [
        "ка",
        -17.525588989257812
      ],
      [
        "▁!",
        -13.53100299835205
      ],
      [
        "ray",
        -16.6528377532959
      ],
      [
        "ST",
        -14.163813591003418
      ],
      [
        "ific",
        -17.606969833374023
      ],
      [
        "ли",
        -19.333938598632812
      ],
      [
        "read",
        -13.959595680236816
      ],
      [
        "▁bet",
        -19.368680953979492
      ],
      [
        "ious",
        -16.859752655029297
      ],
      [
        "arg",
        -13.555944442749023
      ],
      [
        "▁need",
        -14.076581001281738
      ],
      [
        "math",
        -16.471927642822266
      ],
      [
        "▁на",
        -19.21357154846191
      ],
      [
        "ert",
        -16.940919876098633
      ],
      [
        "▁op",
        -15.892319679260254
      ],
      [
        "▁acc",
        -18.14476776123047
      ],
      [
        "Pro",
        -16.341445922851562
      ],
      [
        "▁est",
        -20.231109619140625
      ],
      [
        "▁Un",
        -14.891152381896973
      ],
      [
        "▁ent",
        -20.172016143798828
      ],
      [
        "▁rec",
        -17.622591018676758
      ],
      [
        "▁use",
        -13.271005630493164
      ],
      [
        "ен",
        -21.52884864807129
      ],
      [
        "▁par",
        -16.960735321044922
      ],
      [
        "az",
        -16.661745071411133
      ],
      [
        "▁д",
        -24.375146865844727
      ],
      [
        "▁Wh",
        -17.924327850341797
      ],
      [
        "self",
        -15.05656623840332
      ],
      [
        "▁ke",
        -19.3980712890625
      ],
      [
        "та",
        -19.18614196777344
      ],
      [
        "▁want",
        -14.678837776184082
      ],
      [
        "▁end",
        -13.98313045501709
      ],
      [
        "▁don",
        -16.121566772460938
      ],
      [
        "ek",
        -15.89492893218994
      ],
      [
        "ren",
        -17.31464385986328
      ],
      [
        "Name",
        -14.144807815551758
      ],
      [
        "▁=>",
        -18.85954475402832
      ],
      [
        "▁app",
        -16.342769622802734
      ],
      [
        "▁que",
        -19.04803466796875
      ],
      [
        "igh",
        -17.34400177001953
      ],
      [
        "▁bu",
        -19.310029983520508
      ],
      [
        "equ",
        -18.87519645690918
      ],
      [
        "vel",
        -17.729875564575195
      ],
      [
        "▁act",
        -17.527517318725586
      ],
      [
        "cre",
        -18.17810440063477
      ],
      [
        "AT",
        -14.450838088989258
      ],
      [
        "▁var",
        -16.556869506835938
      ],
      [
        "cess",
        -19.061622619628903
      ],
      [
        "====",
        -18.915754318237305
      ],
      [
        "Ex",
        -15.635095596313477
      ],
      [
        "▁add",
        -15.105023384094238
      ],
      [
        "▁mod",
        -16.91360092163086
      ],
      [
        "ung",
        -16.386674880981445
      ],
      [
        "▁where",
        -14.23347282409668
      ],
      [
        "ning",
        -16.30616569519043
      ],
      [
        "▁fl",
        -16.914758682250977
      ],
      [
        "als",
        -16.02992820739746
      ],
      [
        "tern",
        -17.903596878051758
      ],
      [
        "}}",
        -17.401962280273438
      ],
      [
        "▁Al",
        -14.56239128112793
      ],
      [
        "▁pos",
        -16.630287170410156
      ],
      [
        "ank",
        -17.789472579956055
      ],
      [
        "▁ap",
        -18.10568618774414
      ],
      [
        "eng",
        -17.60735511779785
      ],
      [
        "▁“",
        -13.676130294799805
      ],
      [
        "ble",
        -16.202009201049805
      ],
      [
        "▁reg",
        -15.873086929321287
      ],
      [
        "^{",
        -18.709070205688477
      ],
      [
        "▁She",
        -15.038450241088867
      ],
      [
        "▁*/",
        -8.82922077178955
      ],
      [
        "ude",
        -17.562267303466797
      ],
      [
        "add",
        -14.129676818847656
      ],
      [
        "▁two",
        -13.962374687194824
      ],
      [
        "▁col",
        -16.48415756225586
      ],
      [
        "▁sm",
        -17.763072967529297
      ],
      [
        "air",
        -16.27904510498047
      ],
      [
        "▁may",
        -13.48730182647705
      ],
      [
        "fore",
        -19.200101852416992
      ],
      [
        "▁You",
        -13.395076751708984
      ],
      [
        "rough",
        -18.882591247558594
      ],
      [
        "▁che",
        -18.53674697875977
      ],
      [
        "▁att",
        -19.16583251953125
      ],
      [
        "oth",
        -17.75786018371582
      ],
      [
        "ла",
        -19.18259620666504
      ],
      [
        "▁co",
        -16.26322364807129
      ],
      [
        "ates",
        -15.761414527893066
      ],
      [
        "▁rem",
        -18.44827461242676
      ],
      [
        "ood",
        -17.945405960083008
      ],
      [
        "Type",
        -12.818930625915527
      ],
      [
        "led",
        -16.102327346801758
      ],
      [
        "ful",
        -15.661184310913086
      ],
      [
        "▁self",
        -15.68690013885498
      ],
      [
        "of",
        -14.356863975524902
      ],
      [
        "▁Ar",
        -15.73218059539795
      ],
      [
        "que",
        -15.977989196777344
      ],
      [
        "▁every",
        -15.28675651550293
      ],
      [
        "ref",
        -14.19107437133789
      ],
      [
        "The",
        -13.868422508239746
      ],
      [
        "▁And",
        -14.327799797058104
      ],
      [
        "▁rel",
        -17.391496658325195
      ],
      [
        "OR",
        -14.322596549987791
      ],
      [
        "Id",
        -14.111856460571287
      ],
      [
        "▁even",
        -14.709108352661133
      ],
      [
        "EN",
        -14.317502975463867
      ],
      [
        "▁hand",
        -16.067401885986328
      ],
      [
        "ait",
        -19.31265640258789
      ],
      [
        "▁should",
        -13.820073127746582
      ],
      [
        "▁after",
        -13.921076774597168
      ],
      [
        "▁dif",
        -21.243209838867188
      ],
      [
        "ght",
        -20.62601089477539
      ],
      [
        "ife",
        -18.532466888427734
      ],
      [
        "ator",
        -14.42241668701172
      ],
      [
        "ash",
        -15.98465347290039
      ],
      [
        "ribut",
        -19.81477165222168
      ],
      [
        "umber",
        -18.18989372253418
      ],
      [
        "▁see",
        -14.289687156677246
      ],
      [
        "ms",
        -15.116241455078123
      ],
      [
        "▁call",
        -14.73370361328125
      ],
      [
        "yn",
        -16.54526138305664
      ],
      [
        "dd",
        -15.978866577148438
      ],
      [
        "▁es",
        -19.86754035949707
      ],
      [
        "▁make",
        -14.00708293914795
      ],
      [
        "other",
        -16.503917694091797
      ],
      [
        "▁—",
        -14.016944885253906
      ],
      [
        "\");",
        -12.650069236755373
      ],
      [
        "str",
        -13.311275482177734
      ],
      [
        "▁long",
        -13.442049026489258
      ],
      [
        "lement",
        -18.60927963256836
      ],
      [
        "▁wor",
        -22.267364501953125
      ],
      [
        "its",
        -15.43651008605957
      ],
      [
        "▁If",
        -13.48566722869873
      ],
      [
        "alse",
        -25.0692081451416
      ],
      [
        "ль",
        -19.08676528930664
      ],
      [
        "ward",
        -16.821352005004883
      ],
      [
        "▁по",
        -19.892576217651367
      ],
      [
        "val",
        -13.544814109802246
      ],
      [
        "ons",
        -16.727087020874023
      ],
      [
        "▁Z",
        -13.64804458618164
      ],
      [
        "▁now",
        -14.106585502624512
      ],
      [
        "data",
        -12.446109771728516
      ],
      [
        "amp",
        -16.12885284423828
      ],
      [
        "ense",
        -16.716232299804688
      ],
      [
        "▁through",
        -14.354828834533691
      ],
      [
        "▁down",
        -14.935280799865724
      ],
      [
        "att",
        -16.0375919342041
      ],
      [
        "▁static",
        -11.28617000579834
      ],
      [
        "ics",
        -14.976438522338867
      ],
      [
        "##",
        -17.22199821472168
      ],
      [
        "pos",
        -14.553152084350586
      ],
      [
        "▁void",
        -10.966704368591309
      ],
      [
        "aw",
        -16.5659122467041
      ],
      [
        "oun",
        -18.9100284576416
      ],
      [
        "▁way",
        -14.616064071655272
      ],
      [
        "ible",
        -15.778153419494627
      ],
      [
        "vent",
        -18.039186477661133
      ],
      [
        "ower",
        -19.461837768554688
      ],
      [
        "▁think",
        -15.053619384765623
      ],
      [
        "ts",
        -14.489209175109863
      ],
      [
        "*/",
        -11.777624130249023
      ],
      [
        "▁again",
        -15.310503959655762
      ],
      [
        "ating",
        -14.692907333374023
      ],
      [
        "те",
        -19.866859436035156
      ],
      [
        "ner",
        -15.341350555419922
      ],
      [
        "▁most",
        -14.412537574768066
      ],
      [
        "line",
        -13.46264362335205
      ],
      [
        "ym",
        -17.165456771850586
      ],
      [
        "▁sub",
        -14.819674491882324
      ],
      [
        "erson",
        -17.710153579711914
      ],
      [
        "▁requ",
        -23.688634872436523
      ],
      [
        "AL",
        -13.854205131530762
      ],
      [
        "AR",
        -15.00840187072754
      ],
      [
        "abel",
        -19.77802848815918
      ],
      [
        "ond",
        -17.874296188354492
      ],
      [
        "));",
        -13.025324821472168
      ],
      [
        "▁Se",
        -15.867596626281738
      ],
      [
        "▁But",
        -14.81769847869873
      ],
      [
        "alk",
        -19.0538272857666
      ],
      [
        "▁An",
        -14.506826400756836
      ],
      [
        "new",
        -14.029791831970217
      ],
      [
        "▁because",
        -14.61290168762207
      ],
      [
        "ger",
        -15.900569915771484
      ],
      [
        "ular",
        -16.71357536315918
      ],
      [
        "roup",
        -19.500574111938477
      ],
      [
        "ta",
        -15.169259071350098
      ],
      [
        "...",
        -12.031455039978027
      ],
      [
        "▁cons",
        -18.844390869140625
      ],
      [
        "▁right",
        -14.589433670043944
      ],
      [
        "▁fr",
        -17.723556518554688
      ],
      [
        "be",
        -14.74327564239502
      ],
      [
        "ily",
        -17.86785125732422
      ],
      [
        "ки",
        -18.78028678894043
      ],
      [
        "▁ph",
        -18.858646392822266
      ],
      [
        "ead",
        -18.643836975097656
      ],
      [
        "?\"",
        -16.49805450439453
      ],
      [
        "▁gu",
        -18.367063522338867
      ],
      [
        "▁else",
        -11.82340145111084
      ],
      [
        "▁som",
        -21.096662521362305
      ],
      [
        "rent",
        -17.844478607177734
      ],
      [
        "co",
        -14.435687065124512
      ],
      [
        "ement",
        -17.669265747070312
      ],
      [
        "▁str",
        -15.172212600708008
      ],
      [
        "ault",
        -17.132484436035156
      ],
      [
        "▁з",
        -22.004770278930664
      ],
      [
        "ло",
        -19.682615280151367
      ],
      [
        "sert",
        -18.85795783996582
      ],
      [
        "var",
        -14.66990852355957
      ],
      [
        "type",
        -12.448409080505373
      ],
      [
        "▁Com",
        -16.125215530395508
      ],
      [
        "ле",
        -19.58676528930664
      ],
      [
        "ins",
        -15.293411254882812
      ],
      [
        "me",
        -14.84202480316162
      ],
      [
        "way",
        -15.524337768554688
      ],
      [
        "ident",
        -16.72933006286621
      ],
      [
        "▁prov",
        -20.040950775146484
      ],
      [
        "▁м",
        -24.37290954589844
      ],
      [
        "▁true",
        -13.48285961151123
      ],
      [
        "▁Pro",
        -14.965871810913086
      ],
      [
        "fl",
        -15.81806468963623
      ],
      [
        "▁sl",
        -17.471250534057617
      ],
      [
        "▁As",
        -14.51564884185791
      ],
      [
        "}\\",
        -16.373586654663086
      ],
      [
        "ID",
        -12.72433376312256
      ],
      [
        "ues",
        -17.920978546142578
      ],
      [
        "▁inst",
        -19.181081771850582
      ],
      [
        "▁name",
        -13.820117950439451
      ],
      [
        "ox",
        -16.50531578063965
      ],
      [
        "▁)",
        -15.20158863067627
      ],
      [
        "li",
        -14.96509075164795
      ],
      [
        "ames",
        -19.057418823242188
      ],
      [
        "Res",
        -16.28662109375
      ],
      [
        "▁sur",
        -17.454242706298828
      ],
      [
        "param",
        -12.86683464050293
      ],
      [
        "▁start",
        -14.561812400817873
      ],
      [
        "aj",
        -17.556459426879883
      ],
      [
        "SE",
        -14.532833099365234
      ],
      [
        "ask",
        -18.859947204589844
      ],
      [
        "IT",
        -14.39028263092041
      ],
      [
        "String",
        -13.389270782470703
      ],
      [
        "▁ass",
        -19.03619956970215
      ],
      [
        "▁play",
        -15.491403579711914
      ],
      [
        "ting",
        -15.418535232543944
      ],
      [
        "ton",
        -14.315497398376465
      ],
      [
        "▁before",
        -14.32106876373291
      ],
      [
        "▁pol",
        -18.814252853393555
      ],
      [
        "arch",
        -16.190759658813477
      ],
      [
        "▁well",
        -14.43890380859375
      ],
      [
        "Com",
        -16.705589294433594
      ],
      [
        "any",
        -16.516740798950195
      ],
      [
        "olog",
        -18.674318313598633
      ],
      [
        "▁err",
        -14.259154319763184
      ],
      [
        "▁these",
        -14.246015548706056
      ],
      [
        "ars",
        -16.98474884033203
      ],
      [
        "eb",
        -16.164169311523438
      ],
      [
        "▁br",
        -17.573413848876953
      ],
      [
        "▁incl",
        -20.959632873535156
      ],
      [
        "▁hel",
        -21.15799140930176
      ],
      [
        "ern",
        -16.952510833740234
      ],
      [
        "ody",
        -18.16327667236328
      ],
      [
        "во",
        -19.766687393188477
      ],
      [
        "▁ind",
        -18.18824577331543
      ],
      [
        "----------------",
        -13.863104820251465
      ],
      [
        "▁data",
        -13.13747787475586
      ],
      [
        "▁good",
        -14.408909797668455
      ],
      [
        "LE",
        -14.09850788116455
      ],
      [
        "],",
        -14.511162757873535
      ],
      [
        "▁av",
        -17.193849563598633
      ],
      [
        "▁ac",
        -17.452003479003906
      ],
      [
        "ider",
        -17.407100677490234
      ],
      [
        "не",
        -19.45859718322754
      ],
      [
        "▁Q",
        -13.799818992614746
      ],
      [
        "▁min",
        -15.94816780090332
      ],
      [
        "▁much",
        -14.699504852294922
      ],
      [
        "ci",
        -15.840410232543944
      ],
      [
        "els",
        -16.62034034729004
      ],
      [
        "▁cur",
        -16.38102149963379
      ],
      [
        "▁value",
        -13.030138969421388
      ],
      [
        "ery",
        -16.83936882019043
      ],
      [
        "uf",
        -17.453807830810547
      ],
      [
        "▁loc",
        -18.338319778442383
      ],
      [
        "reak",
        -20.859844207763672
      ],
      [
        "ative",
        -15.231012344360352
      ],
      [
        "imes",
        -20.615978240966797
      ],
      [
        "Cl",
        -16.836246490478516
      ],
      [
        "▁,",
        -16.972469329833984
      ],
      [
        "▁ser",
        -18.717939376831055
      ],
      [
        "▁die",
        -17.682226181030273
      ],
      [
        "▁trans",
        -16.725425720214844
      ],
      [
        "▁result",
        -13.986512184143066
      ],
      [
        "ext",
        -15.487727165222168
      ],
      [
        "▁aut",
        -20.671709060668945
      ],
      [
        "land",
        -14.72950553894043
      ],
      [
        "▁&&",
        -13.25205898284912
      ],
      [
        "Ch",
        -15.867236137390137
      ],
      [
        "ten",
        -15.912569999694824
      ],
      [
        "}$",
        -17.620296478271484
      ],
      [
        "▁type",
        -13.77802848815918
      ],
      [
        "cond",
        -16.73845100402832
      ],
      [
        "ices",
        -17.764514923095703
      ],
      [
        "▁very",
        -14.563661575317385
      ],
      [
        "▁own",
        -15.146076202392578
      ],
      [
        "▁fil",
        -19.234405517578125
      ],
      [
        "ities",
        -14.819293022155762
      ],
      [
        "▁produ",
        -22.83966064453125
      ],
      [
        "▁read",
        -14.437615394592283
      ],
      [
        "▁form",
        -15.176888465881348
      ],
      [
        "▁case",
        -13.61994457244873
      ],
      [
        "ather",
        -17.563100814819336
      ],
      [
        "ти",
        -19.723756790161133
      ],
      [
        "да",
        -17.585153579711914
      ],
      [
        "ер",
        -20.89540100097656
      ],
      [
        "Th",
        -16.576974868774414
      ],
      [
        "aut",
        -17.749399185180664
      ],
      [
        "▁spec",
        -16.955419540405273
      ],
      [
        "ij",
        -17.934911727905273
      ],
      [
        "bl",
        -15.717880249023438
      ],
      [
        "ility",
        -17.107919692993164
      ],
      [
        "▁é",
        -21.984363555908203
      ],
      [
        "▁er",
        -20.229259490966797
      ],
      [
        "▁does",
        -14.72353458404541
      ],
      [
        "▁here",
        -13.868617057800291
      ],
      [
        "the",
        -14.722826957702637
      ],
      [
        "ures",
        -17.24595832824707
      ],
      [
        "▁%",
        -13.370429039001465
      ],
      [
        "min",
        -14.619464874267578
      ],
      [
        "▁null",
        -16.735990524291992
      ],
      [
        "rap",
        -17.801578521728516
      ],
      [
        "\")",
        -15.212594985961914
      ],
      [
        "rr",
        -16.72238540649414
      ],
      [
        "List",
        -14.122028350830078
      ],
      [
        "right",
        -14.913030624389648
      ],
      [
        "▁User",
        -16.79517936706543
      ],
      [
        "UL",
        -14.561094284057615
      ],
      [
        "ational",
        -17.127023696899414
      ],
      [
        "▁being",
        -14.574847221374512
      ],
      [
        "AN",
        -14.971673011779783
      ],
      [
        "sk",
        -15.220396995544434
      ],
      [
        "▁car",
        -15.860774040222168
      ],
      [
        "ole",
        -16.6854190826416
      ],
      [
        "▁dist",
        -18.13129615783691
      ],
      [
        "plic",
        -19.847904205322266
      ],
      [
        "ollow",
        -21.653879165649418
      ],
      [
        "▁pres",
        -20.68638801574707
      ],
      [
        "▁such",
        -14.661316871643066
      ],
      [
        "ream",
        -19.942825317382812
      ],
      [
        "ince",
        -19.074792861938477
      ],
      [
        "gan",
        -17.404356002807617
      ],
      [
        "▁For",
        -13.628162384033203
      ],
      [
        "\":",
        -15.842966079711914
      ],
      [
        "son",
        -14.574642181396484
      ],
      [
        "rivate",
        -25.5179443359375
      ],
      [
        "▁years",
        -14.284771919250488
      ],
      [
        "▁serv",
        -20.169086456298828
      ],
      [
        "▁made",
        -14.727707862854004
      ],
      [
        "def",
        -14.54647445678711
      ],
      [
        ";\r",
        -125.5939712524414
      ],
      [
        "▁gl",
        -15.68346881866455
      ],
      [
        "▁bel",
        -21.329612731933594
      ],
      [
        "▁list",
        -13.973078727722168
      ],
      [
        "▁cor",
        -18.54558563232422
      ],
      [
        "▁det",
        -17.93854522705078
      ],
      [
        "ception",
        -16.11942481994629
      ],
      [
        "egin",
        -23.524658203125
      ],
      [
        "▁б",
        -23.52749252319336
      ],
      [
        "▁char",
        -12.3989839553833
      ],
      [
        "trans",
        -16.41875457763672
      ],
      [
        "▁fam",
        -21.1351375579834
      ],
      [
        "▁!=",
        -12.617764472961426
      ],
      [
        "ouse",
        -20.771759033203125
      ],
      [
        "▁dec",
        -17.89505386352539
      ],
      [
        "ica",
        -15.839309692382812
      ],
      [
        "▁many",
        -14.592341423034668
      ],
      [
        "aking",
        -17.78688621520996
      ],
      [
        "▁à",
        -18.692718505859375
      ],
      [
        "▁sim",
        -17.718002319335938
      ],
      [
        "ages",
        -17.793134689331055
      ],
      [
        "uff",
        -16.608680725097656
      ],
      [
        "ased",
        -18.46479225158691
      ],
      [
        "man",
        -13.800697326660156
      ],
      [
        "▁Sh",
        -14.979575157165527
      ],
      [
        "iet",
        -18.14737892150879
      ],
      [
        "irect",
        -19.62866973876953
      ],
      [
        "▁Re",
        -12.330052375793455
      ],
      [
        "▁differ",
        -19.02842712402344
      ],
      [
        "▁find",
        -14.68635082244873
      ],
      [
        "ethod",
        -23.35605239868164
      ],
      [
        "▁\r",
        -125.5939712524414
      ],
      [
        "ines",
        -17.09638214111328
      ],
      [
        "▁inv",
        -18.219568252563477
      ],
      [
        "▁point",
        -15.03989315032959
      ],
      [
        "▁They",
        -15.158243179321287
      ],
      [
        "▁used",
        -13.57766056060791
      ],
      [
        "ctions",
        -18.587909698486328
      ],
      [
        "▁still",
        -14.96341609954834
      ],
      [
        "ió",
        -21.771703720092773
      ],
      [
        "ined",
        -17.81084442138672
      ],
      [
        "▁while",
        -14.061636924743652
      ],
      [
        "It",
        -16.47581672668457
      ],
      [
        "ember",
        -19.325109481811523
      ],
      [
        "▁say",
        -15.533273696899414
      ],
      [
        "▁help",
        -14.73685073852539
      ],
      [
        "▁cre",
        -19.872663497924805
      ],
      [
        "▁x",
        -12.471450805664062
      ],
      [
        "▁Tr",
        -15.800905227661133
      ],
      [
        "ument",
        -19.92018699645996
      ],
      [
        "▁sk",
        -17.23025894165039
      ],
      [
        "ought",
        -19.21929168701172
      ],
      [
        "ually",
        -19.09572982788086
      ],
      [
        "message",
        -15.915610313415527
      ],
      [
        "▁Con",
        -14.802968978881836
      ],
      [
        "▁mon",
        -17.747079849243164
      ],
      [
        "ared",
        -18.564165115356445
      ],
      [
        "work",
        -15.761420249938965
      ],
      [
        "):",
        -14.646095275878906
      ],
      [
        "ister",
        -18.02303695678711
      ],
      [
        "arn",
        -17.892641067504883
      ],
      [
        "ized",
        -15.148187637329102
      ],
      [
        "Data",
        -13.517328262329102
      ],
      [
        "orn",
        -18.068708419799805
      ],
      [
        "▁head",
        -15.74838638305664
      ],
      [
        "DE",
        -14.408262252807615
      ],
      [
        "▁Le",
        -14.996952056884766
      ],
      [
        "▁person",
        -15.68621826171875
      ],
      [
        "ments",
        -15.558270454406738
      ],
      [
        "ength",
        -18.780107498168945
      ],
      [
        "▁false",
        -13.521865844726562
      ],
      [
        "▁med",
        -20.07315444946289
      ],
      [
        "▁De",
        -14.512136459350586
      ],
      [
        "ache",
        -18.28704261779785
      ],
      [
        "ited",
        -17.18975830078125
      ],
      [
        "▁let",
        -16.168624877929688
      ],
      [
        "▁show",
        -15.209474563598633
      ],
      [
        "▁same",
        -14.574796676635742
      ],
      [
        "uss",
        -17.71831512451172
      ],
      [
        "▁gener",
        -18.755281448364254
      ],
      [
        "▁у",
        -20.335926055908203
      ],
      [
        "cur",
        -15.04281234741211
      ],
      [
        "▁real",
        -15.39072608947754
      ],
      [
        "ced",
        -17.840560913085938
      ],
      [
        "\">",
        -16.453693389892578
      ],
      [
        "struct",
        -12.065752029418944
      ],
      [
        "begin",
        -14.207107543945312
      ],
      [
        "cept",
        -18.206918716430664
      ],
      [
        "▁bo",
        -17.7540225982666
      ],
      [
        "ired",
        -17.272865295410156
      ],
      [
        "▁Fr",
        -17.19666862487793
      ],
      [
        "▁stud",
        -21.060707092285156
      ],
      [
        "dev",
        -13.508012771606444
      ],
      [
        "Ar",
        -17.138540267944336
      ],
      [
        "(\\",
        -17.91746711730957
      ],
      [
        "▁Cl",
        -15.552753448486328
      ],
      [
        "ween",
        -19.83158493041992
      ],
      [
        "▁too",
        -14.9617919921875
      ],
      [
        "▁test",
        -14.820995330810549
      ],
      [
        "▁day",
        -14.797039985656738
      ],
      [
        "oh",
        -16.83188247680664
      ],
      [
        "▁follow",
        -16.54622459411621
      ],
      [
        "ature",
        -16.518640518188477
      ],
      [
        "ze",
        -15.873103141784668
      ],
      [
        "ien",
        -17.287302017211914
      ],
      [
        "reg",
        -14.35183048248291
      ],
      [
        "ces",
        -17.95416259765625
      ],
      [
        "uring",
        -16.64478302001953
      ],
      [
        "amb",
        -17.728933334350586
      ],
      [
        "ina",
        -14.905742645263672
      ],
      [
        "cri",
        -20.419940948486328
      ],
      [
        "▁ed",
        -20.29157066345215
      ],
      [
        "SS",
        -15.434425354003906
      ],
      [
        "uck",
        -16.800342559814453
      ],
      [
        "▁/*",
        -9.745430946350098
      ],
      [
        "CT",
        -15.944952964782717
      ],
      [
        "▁There",
        -14.717025756835938
      ],
      [
        "▁take",
        -14.777485847473145
      ],
      [
        "par",
        -16.099903106689453
      ],
      [
        "ule",
        -17.88285255432129
      ],
      [
        "cal",
        -16.84650421142578
      ],
      [
        "for",
        -13.801702499389648
      ],
      [
        "****************",
        -13.762332916259766
      ],
      [
        "source",
        -15.862927436828612
      ],
      [
        "▁those",
        -14.963659286499023
      ],
      [
        "col",
        -15.281431198120115
      ],
      [
        "▁eff",
        -20.967100143432617
      ],
      [
        "mod",
        -15.5661039352417
      ],
      [
        "cont",
        -17.521953582763672
      ],
      [
        "}{",
        -18.200258255004883
      ],
      [
        "▁around",
        -15.115117073059082
      ],
      [
        "press",
        -16.848485946655273
      ],
      [
        "by",
        -14.482718467712402
      ],
      [
        "▁going",
        -15.306593894958496
      ],
      [
        "ponse",
        -23.16026496887207
      ],
      [
        "▁С",
        -18.34608268737793
      ],
      [
        "▁line",
        -14.717452049255373
      ],
      [
        "date",
        -16.66291618347168
      ],
      [
        "code",
        -13.87351894378662
      ],
      [
        "['",
        -18.99085807800293
      ],
      [
        "▁life",
        -13.826547622680664
      ],
      [
        "ason",
        -20.146909713745117
      ],
      [
        "▁using",
        -13.923471450805664
      ],
      [
        "▁val",
        -15.607534408569336
      ],
      [
        "▁du",
        -16.984817504882812
      ],
      [
        "yp",
        -18.070959091186523
      ],
      [
        "▁On",
        -14.211675643920898
      ],
      [
        "▁found",
        -14.520394325256348
      ],
      [
        "olut",
        -21.726242065429688
      ],
      [
        "']",
        -18.979167938232425
      ],
      [
        "arent",
        -23.289915084838867
      ],
      [
        "▁string",
        -14.905964851379396
      ],
      [
        "▁met",
        -15.780505180358888
      ],
      [
        "▁wr",
        -19.297054290771484
      ],
      [
        "ush",
        -16.638444900512695
      ],
      [
        "string",
        -12.984469413757324
      ],
      [
        "size",
        -12.3334321975708
      ],
      [
        "▁ver",
        -17.549774169921875
      ],
      [
        "▁each",
        -14.543269157409668
      ],
      [
        "value",
        -13.279644966125488
      ],
      [
        "▁last",
        -14.286003112792969
      ],
      [
        "▁got",
        -15.506842613220217
      ],
      [
        "ven",
        -16.918289184570312
      ],
      [
        "back",
        -14.493853569030762
      ],
      [
        "Set",
        -13.753090858459473
      ],
      [
        "ey",
        -15.821452140808104
      ],
      [
        "rol",
        -17.61394500732422
      ],
      [
        "▁cr",
        -17.111066818237305
      ],
      [
        "thing",
        -18.17776107788086
      ],
      [
        "ret",
        -13.302102088928224
      ],
      [
        "és",
        -18.755321502685547
      ],
      [
        "ism",
        -14.76304817199707
      ],
      [
        "▁between",
        -14.675130844116213
      ],
      [
        "Ob",
        -18.99645233154297
      ],
      [
        "ething",
        -26.732099533081055
      ],
      [
        "mp",
        -14.451523780822754
      ],
      [
        "▁lo",
        -18.28059196472168
      ],
      [
        "ats",
        -16.436616897583008
      ],
      [
        "▁New",
        -13.162705421447754
      ],
      [
        "ви",
        -20.248472213745117
      ],
      [
        "ado",
        -17.0687313079834
      ],
      [
        "dex",
        -19.694976806640625
      ],
      [
        "ди",
        -19.838287353515625
      ],
      [
        "▁pass",
        -16.35833168029785
      ],
      [
        "wh",
        -19.05251121520996
      ],
      [
        "▁den",
        -18.537410736083984
      ],
      [
        "Get",
        -13.390748977661133
      ],
      [
        "apt",
        -18.909666061401367
      ],
      [
        "▁ask",
        -17.07264518737793
      ],
      [
        "▁sup",
        -19.326242446899418
      ],
      [
        "Value",
        -14.058595657348633
      ],
      [
        "ны",
        -21.408912658691406
      ],
      [
        "▁try",
        -15.4150390625
      ],
      [
        "lation",
        -17.618640899658203
      ],
      [
        "day",
        -15.743766784667969
      ],
      [
        "ness",
        -15.165928840637209
      ],
      [
        "ets",
        -16.478857040405273
      ],
      [
        "▁exper",
        -26.932435989379883
      ],
      [
        "Tr",
        -16.95822525024414
      ],
      [
        "▁Mar",
        -14.841870307922363
      ],
      [
        "serv",
        -18.327964782714844
      ],
      [
        "br",
        -14.86198902130127
      ],
      [
        "▁number",
        -13.79736042022705
      ],
      [
        "inal",
        -16.54266357421875
      ],
      [
        "cent",
        -16.60856819152832
      ],
      [
        "/*",
        -10.931517601013184
      ],
      [
        "not",
        -15.660173416137695
      ],
      [
        "ional",
        -17.993179321289062
      ],
      [
        "▁final",
        -15.372108459472656
      ],
      [
        "')",
        -15.338068962097168
      ],
      [
        "▁run",
        -15.417474746704102
      ],
      [
        "over",
        -15.559946060180664
      ],
      [
        "▁never",
        -15.429169654846191
      ],
      [
        "uc",
        -15.89973258972168
      ],
      [
        "▁high",
        -15.073012351989746
      ],
      [
        "yle",
        -19.112401962280273
      ],
      [
        "▁ins",
        -18.054027557373047
      ],
      [
        "▁best",
        -14.638806343078612
      ],
      [
        "ittle",
        -21.735279083251953
      ],
      [
        "ric",
        -16.71120262145996
      ],
      [
        "▁sign",
        -16.41687774658203
      ],
      [
        "▁dem",
        -19.12679672241211
      ],
      [
        "iness",
        -18.54066467285156
      ],
      [
        "gy",
        -16.997220993041992
      ],
      [
        "▁war",
        -16.606721878051758
      ],
      [
        "ished",
        -16.58819580078125
      ],
      [
        "▁giv",
        -24.461538314819336
      ],
      [
        "key",
        -13.670388221740724
      ],
      [
        "▁X",
        -13.511198043823242
      ],
      [
        "($",
        -18.3757381439209
      ],
      [
        "▁child",
        -15.928179740905762
      ],
      [
        "less",
        -15.309475898742676
      ],
      [
        "ways",
        -17.504297256469727
      ],
      [
        "incl",
        -20.215017318725582
      ],
      [
        "rop",
        -16.95077896118164
      ],
      [
        "raw",
        -16.273012161254883
      ],
      [
        "://",
        -14.51552391052246
      ],
      [
        "▁«",
        -14.032048225402832
      ],
      [
        "no",
        -13.812407493591309
      ],
      [
        "indow",
        -25.504732131958008
      ],
      [
        "fe",
        -15.891676902770996
      ],
      [
        "riend",
        -24.780593872070312
      ],
      [
        "▁les",
        -19.484100341796875
      ],
      [
        "▁los",
        -19.44960021972656
      ],
      [
        "file",
        -13.757184028625488
      ],
      [
        "formation",
        -19.51995849609375
      ],
      [
        "ccess",
        -23.284160614013672
      ],
      [
        "▁В",
        -19.584434509277344
      ],
      [
        "na",
        -14.580095291137695
      ],
      [
        "▁il",
        -20.197288513183594
      ],
      [
        "ision",
        -16.45886993408203
      ],
      [
        "ler",
        -15.619795799255373
      ],
      [
        "▁art",
        -16.355152130126953
      ],
      [
        "Cont",
        -18.933500289916992
      ],
      [
        "▁world",
        -14.96633243560791
      ],
      [
        "▁turn",
        -16.625988006591797
      ],
      [
        "▁really",
        -15.090781211853027
      ],
      [
        "▁Ex",
        -15.22743034362793
      ],
      [
        "ма",
        -19.791080474853516
      ],
      [
        "▁П",
        -18.903274536132812
      ],
      [
        "ters",
        -17.006155014038086
      ],
      [
        "arget",
        -25.526994705200195
      ],
      [
        "Err",
        -16.484819412231445
      ],
      [
        "▁happ",
        -20.72475814819336
      ],
      [
        "time",
        -13.987804412841797
      ],
      [
        "▁So",
        -14.447693824768066
      ],
      [
        "div",
        -15.641196250915527
      ],
      [
        "▁didn",
        -16.271305084228516
      ],
      [
        "ada",
        -16.0843563079834
      ],
      [
        "oot",
        -18.455766677856445
      ],
      [
        "})",
        -19.79447364807129
      ],
      [
        "▁sch",
        -19.57601547241211
      ],
      [
        "▁cle",
        -21.232892990112305
      ],
      [
        "▁something",
        -15.470335960388184
      ],
      [
        "().",
        -15.828341484069824
      ],
      [
        "▁cour",
        -22.301441192626953
      ],
      [
        "ever",
        -17.21582794189453
      ],
      [
        "ants",
        -15.74708366394043
      ],
      [
        "▁?",
        -15.062180519104004
      ],
      [
        "To",
        -14.243657112121582
      ],
      [
        "▁`",
        -15.750327110290527
      ],
      [
        "try",
        -16.23929214477539
      ],
      [
        "ux",
        -16.67214584350586
      ],
      [
        "ais",
        -17.931669235229492
      ],
      [
        "ross",
        -19.06890869140625
      ],
      [
        "hip",
        -17.30233383178711
      ],
      [
        "▁rep",
        -18.072998046875
      ],
      [
        "label",
        -15.233271598815918
      ],
      [
        "▁both",
        -14.960654258728027
      ],
      [
        "*,",
        -17.24127769470215
      ],
      [
        "ott",
        -17.855701446533203
      ],
      [
        "ми",
        -20.039934158325195
      ],
      [
        "ane",
        -15.996441841125488
      ],
      [
        "▁open",
        -15.207734107971191
      ],
      [
        "ww",
        -17.626049041748047
      ],
      [
        "▁come",
        -15.54654026031494
      ],
      [
        "▁ext",
        -17.492822647094727
      ],
      [
        "rem",
        -16.988622665405273
      ],
      [
        "_{\\",
        -17.795284271240234
      ],
      [
        "▁old",
        -15.127765655517578
      ],
      [
        "ched",
        -18.924026489257812
      ],
      [
        "._",
        -20.812854766845703
      ],
      [
        "ME",
        -15.128422737121582
      ],
      [
        "ify",
        -16.11231803894043
      ],
      [
        "gg",
        -17.429866790771484
      ],
      [
        "Col",
        -16.95319366455078
      ],
      [
        "view",
        -14.794231414794922
      ],
      [
        "▁bus",
        -17.139850616455078
      ],
      [
        "▁must",
        -14.029842376708984
      ],
      [
        "▁different",
        -14.98532485961914
      ],
      [
        "log",
        -14.3030366897583
      ],
      [
        "ists",
        -14.490670204162598
      ],
      [
        "roll",
        -17.442398071289062
      ],
      [
        "ai",
        -15.079870223999023
      ],
      [
        "▁за",
        -20.331283569335938
      ],
      [
        "▁system",
        -14.704562187194824
      ],
      [
        "ivers",
        -19.06407356262207
      ],
      [
        "atus",
        -17.369335174560547
      ],
      [
        "ote",
        -16.904924392700195
      ],
      [
        "med",
        -16.739683151245117
      ],
      [
        "].",
        -13.872174263000488
      ],
      [
        "akes",
        -17.48076629638672
      ],
      [
        "RO",
        -14.82758617401123
      ],
      [
        "▁cent",
        -18.658926010131836
      ],
      [
        "gram",
        -17.814144134521484
      ],
      [
        "▁private",
        -13.35753059387207
      ],
      [
        "▁great",
        -14.92795753479004
      ],
      [
        "\";",
        -14.678021430969238
      ],
      [
        "opy",
        -19.79466438293457
      ],
      [
        "▁feel",
        -16.128543853759766
      ],
      [
        "▁How",
        -14.236534118652344
      ],
      [
        "////",
        -19.644508361816406
      ],
      [
        "IC",
        -14.124526023864746
      ],
      [
        "▁dr",
        -17.848657608032227
      ],
      [
        "ains",
        -17.78071403503418
      ],
      [
        "lock",
        -14.236536026000977
      ],
      [
        "En",
        -17.440345764160156
      ],
      [
        "▁Sch",
        -15.641361236572266
      ],
      [
        "▁mat",
        -18.10134506225586
      ],
      [
        "▁home",
        -14.79588508605957
      ],
      [
        "perty",
        -26.19614028930664
      ],
      [
        "test",
        -14.46284294128418
      ],
      [
        "loc",
        -16.005657196044922
      ],
      [
        "▁wom",
        -23.104978561401367
      ],
      [
        "sw",
        -16.079011917114258
      ],
      [
        "arly",
        -19.26923370361328
      ],
      [
        "▁En",
        -15.606404304504396
      ],
      [
        "▁ко",
        -22.17654609680176
      ],
      [
        "den",
        -15.87242603302002
      ],
      [
        "ста",
        -21.39436912536621
      ],
      [
        "▁а",
        -21.46898078918457
      ],
      [
        "eter",
        -18.057601928710938
      ],
      [
        "▁includ",
        -25.52902030944824
      ],
      [
        "ULL",
        -17.167743682861328
      ],
      [
        "▁mem",
        -16.925498962402344
      ],
      [
        "▁po",
        -18.018354415893555
      ],
      [
        "▁little",
        -15.509140014648438
      ],
      [
        "▁arg",
        -16.077939987182617
      ],
      [
        "▁},",
        -13.725112915039062
      ],
      [
        "include",
        -11.250015258789062
      ],
      [
        "eta",
        -17.523305892944336
      ],
      [
        "▁place",
        -15.085918426513672
      ],
      [
        "idth",
        -25.997299194335938
      ],
      [
        "ustom",
        -23.665756225585938
      ],
      [
        "▁||",
        -12.740662574768066
      ],
      [
        "▁tem",
        -20.903364181518555
      ],
      [
        "ried",
        -18.413469314575195
      ],
      [
        "▁fact",
        -16.49302864074707
      ],
      [
        "ience",
        -17.818113327026367
      ],
      [
        "▁Pl",
        -16.058292388916016
      ],
      [
        "opt",
        -15.332804679870604
      ],
      [
        "ele",
        -17.416217803955078
      ],
      [
        "go",
        -15.333401679992676
      ],
      [
        "AC",
        -14.94016456604004
      ],
      [
        "inter",
        -16.268272399902344
      ],
      [
        "========",
        -18.03865623474121
      ],
      [
        "(),",
        -15.532355308532717
      ],
      [
        "ots",
        -17.294443130493164
      ],
      [
        "ral",
        -16.556884765625
      ],
      [
        "ique",
        -16.923879623413086
      ],
      [
        "aving",
        -18.077150344848633
      ],
      [
        "ml",
        -15.717324256896973
      ],
      [
        "▁thought",
        -16.371755599975586
      ],
      [
        "frac",
        -17.408843994140625
      ],
      [
        "▁care",
        -15.910344123840332
      ],
      [
        "());",
        -15.329121589660645
      ],
      [
        "▁put",
        -15.682827949523926
      ],
      [
        "▁might",
        -15.47406768798828
      ],
      [
        "▁Amer",
        -20.140777587890625
      ],
      [
        "▁(!",
        -12.979377746582031
      ],
      [
        "ample",
        -20.85326385498047
      ],
      [
        "alth",
        -19.48990249633789
      ],
      [
        "▁few",
        -15.542398452758787
      ],
      [
        "▁state",
        -14.21226406097412
      ],
      [
        "sub",
        -14.78660011291504
      ],
      [
        "▁Or",
        -15.61494255065918
      ],
      [
        "];",
        -12.779868125915527
      ],
      [
        "▁size",
        -13.35356903076172
      ],
      [
        "▁Sp",
        -16.205516815185547
      ],
      [
        "▁without",
        -14.3639497756958
      ],
      [
        "▁poss",
        -23.10496711730957
      ],
      [
        "eq",
        -16.604764938354492
      ],
      [
        "play",
        -16.247583389282227
      ],
      [
        "▁expect",
        -17.233022689819336
      ],
      [
        "▁second",
        -15.215272903442385
      ],
      [
        "▁String",
        -16.8724365234375
      ],
      [
        "uild",
        -19.509862899780273
      ],
      [
        "▁next",
        -14.46313762664795
      ],
      [
        "++",
        -14.397775650024414
      ],
      [
        "requ",
        -19.259082794189453
      ],
      [
        "▁All",
        -13.39793872833252
      ],
      [
        "▁men",
        -16.251161575317383
      ],
      [
        "▁When",
        -14.983487129211426
      ],
      [
        "iter",
        -15.99759578704834
      ],
      [
        "ament",
        -18.648836135864254
      ],
      [
        "net",
        -14.542465209960938
      ],
      [
        "▁К",
        -19.67074203491211
      ],
      [
        "ron",
        -16.042564392089844
      ],
      [
        "aint",
        -19.128158569335938
      ],
      [
        "▁Is",
        -14.46186065673828
      ],
      [
        "ве",
        -19.9759578704834
      ],
      [
        "pend",
        -18.50474739074707
      ],
      [
        "translation",
        -20.45275115966797
      ],
      [
        "▁го",
        -24.21036720275879
      ],
      [
        "че",
        -20.50086784362793
      ],
      [
        "▁van",
        -17.258995056152344
      ],
      [
        "▁another",
        -15.236417770385742
      ],
      [
        "▁ret",
        -13.551166534423828
      ],
      [
        "▁La",
        -14.91918659210205
      ],
      [
        "Mod",
        -17.654462814331055
      ],
      [
        "ION",
        -15.728764533996582
      ],
      [
        "list",
        -13.368383407592772
      ],
      [
        "▁post",
        -14.996861457824709
      ],
      [
        "da",
        -14.932536125183104
      ],
      [
        "ware",
        -16.01479721069336
      ],
      [
        "▁word",
        -16.197509765625
      ],
      [
        "Error",
        -14.235275268554688
      ],
      [
        "▁seem",
        -17.56761932373047
      ],
      [
        "▁contin",
        -21.37749290466309
      ],
      [
        "atic",
        -17.22806739807129
      ],
      [
        "▁three",
        -15.075101852416992
      ],
      [
        "Object",
        -13.974335670471191
      ],
      [
        "▁partic",
        -24.10847282409668
      ],
      [
        "$.",
        -17.466045379638672
      ],
      [
        "▁mark",
        -16.681720733642578
      ],
      [
        "▁vis",
        -20.64410972595215
      ],
      [
        "rc",
        -14.48707675933838
      ],
      [
        "▁sw",
        -17.2831974029541
      ],
      [
        "ptions",
        -20.22669219970703
      ],
      [
        "▁break",
        -13.505971908569336
      ],
      [
        "▁things",
        -15.488686561584473
      ],
      [
        "ute",
        -16.712923049926758
      ],
      [
        "ui",
        -15.590229988098145
      ],
      [
        "▁That",
        -15.407015800476074
      ],
      [
        "urs",
        -17.809083938598633
      ],
      [
        "gl",
        -13.946089744567873
      ],
      [
        "ру",
        -20.06705093383789
      ],
      [
        "▁file",
        -13.493189811706545
      ],
      [
        "use",
        -14.945601463317873
      ],
      [
        "igned",
        -19.409425735473633
      ],
      [
        "part",
        -16.09307098388672
      ],
      [
        "Un",
        -15.22883415222168
      ],
      [
        "▁equ",
        -19.627534866333008
      ],
      [
        "(&",
        -12.57307243347168
      ],
      [
        "▁lead",
        -16.57611846923828
      ],
      [
        "rm",
        -15.875545501708984
      ],
      [
        "ained",
        -18.02581214904785
      ],
      [
        "▁Be",
        -14.780972480773926
      ],
      [
        "path",
        -14.580887794494627
      ],
      [
        "▁small",
        -15.55470848083496
      ],
      [
        "ager",
        -19.0262393951416
      ],
      [
        "▁always",
        -15.171871185302734
      ],
      [
        "▁El",
        -15.318248748779297
      ],
      [
        "▁order",
        -15.06202507019043
      ],
      [
        "▁ey",
        -24.45490837097168
      ],
      [
        "▁won",
        -15.832037925720217
      ],
      [
        "ape",
        -18.289653778076172
      ],
      [
        "▁left",
        -15.350567817687988
      ],
      [
        "ava",
        -17.4937686920166
      ],
      [
        "item",
        -15.237178802490234
      ],
      [
        "hor",
        -17.962867736816406
      ],
      [
        "▁away",
        -15.885639190673828
      ],
      [
        "bb",
        -15.88352394104004
      ],
      [
        "fun",
        -18.064769744873047
      ],
      [
        "▁Ind",
        -17.131196975708008
      ],
      [
        "mb",
        -15.705828666687012
      ],
      [
        "▁struct",
        -12.184085845947266
      ],
      [
        "▁process",
        -15.066401481628418
      ],
      [
        "▁support",
        -14.776725769042969
      ],
      [
        ");\r",
        -125.5939712524414
      ],
      [
        "ión",
        -20.727558135986328
      ],
      [
        "LO",
        -16.073205947875977
      ],
      [
        "▁oper",
        -20.723003387451172
      ],
      [
        "UT",
        -16.31260108947754
      ],
      [
        "▁·",
        -16.900930404663086
      ],
      [
        "PE",
        -15.457904815673828
      ],
      [
        "load",
        -15.191099166870115
      ],
      [
        "off",
        -14.813531875610352
      ],
      [
        "▁No",
        -13.462187767028809
      ],
      [
        "ives",
        -17.023021697998047
      ],
      [
        "ican",
        -17.954607009887695
      ],
      [
        "▁ve",
        -19.46278381347656
      ],
      [
        "action",
        -15.89301872253418
      ],
      [
        "';",
        -15.712169647216797
      ],
      [
        "▁vo",
        -19.234188079833984
      ],
      [
        "$,",
        -17.964187622070312
      ],
      [
        "▁Gr",
        -15.731213569641112
      ],
      [
        "pre",
        -15.520347595214844
      ],
      [
        "ny",
        -15.600022315979004
      ],
      [
        "aining",
        -17.20173454284668
      ],
      [
        "ior",
        -18.05050277709961
      ],
      [
        "init",
        -13.713078498840332
      ],
      [
        "lection",
        -18.215255737304688
      ],
      [
        "arm",
        -16.178321838378906
      ],
      [
        "umn",
        -16.336013793945312
      ],
      [
        "ags",
        -19.989748001098633
      ],
      [
        "ци",
        -20.986825942993164
      ],
      [
        "ско",
        -22.654390335083008
      ],
      [
        "version",
        -15.43580436706543
      ],
      [
        "▁To",
        -13.944686889648438
      ],
      [
        "▁ref",
        -16.522808074951172
      ],
      [
        "stand",
        -18.20430564880371
      ],
      [
        "▁At",
        -15.208721160888672
      ],
      [
        "ift",
        -17.76638412475586
      ],
      [
        "▁ein",
        -20.49208068847656
      ],
      [
        "face",
        -17.134899139404297
      ],
      [
        "bo",
        -15.634419441223145
      ],
      [
        "ified",
        -15.90651512145996
      ],
      [
        "ved",
        -17.976806640625
      ],
      [
        "sum",
        -15.764747619628906
      ],
      [
        "une",
        -16.921527862548828
      ],
      [
        "ital",
        -17.767990112304688
      ],
      [
        "ump",
        -16.507511138916016
      ],
      [
        "comm",
        -17.630334854125977
      ],
      [
        "▁mov",
        -19.171506881713867
      ],
      [
        "elt",
        -17.829910278320312
      ],
      [
        "▁von",
        -17.923954010009766
      ],
      [
        "velop",
        -21.098115921020508
      ],
      [
        "ctor",
        -14.830710411071776
      ],
      [
        "head",
        -15.013683319091797
      ],
      [
        "cle",
        -17.970537185668945
      ],
      [
        "▁build",
        -16.28970718383789
      ],
      [
        "inc",
        -14.681090354919434
      ],
      [
        ".'",
        -19.02959632873535
      ],
      [
        "bs",
        -15.993083000183104
      ],
      [
        "info",
        -13.012971878051758
      ],
      [
        "chn",
        -19.68187141418457
      ],
      [
        "▁week",
        -15.706289291381836
      ],
      [
        "▁book",
        -14.848990440368652
      ],
      [
        "HE",
        -16.094999313354492
      ],
      [
        "bar",
        -15.754327774047852
      ],
      [
        "icense",
        -25.33733367919922
      ],
      [
        "▁What",
        -13.97476863861084
      ],
      [
        "▁quest",
        -20.393169403076172
      ],
      [
        "urch",
        -19.199115753173828
      ],
      [
        "ato",
        -16.464521408081055
      ],
      [
        "left",
        -14.38291835784912
      ],
      [
        "▁mar",
        -18.031171798706055
      ],
      [
        "▁top",
        -14.91165256500244
      ],
      [
        "FF",
        -14.840547561645508
      ],
      [
        "▁friend",
        -16.1878719329834
      ],
      [
        "▁beh",
        -23.621883392333984
      ],
      [
        "▁field",
        -15.202686309814451
      ],
      [
        "▁against",
        -15.417497634887695
      ],
      [
        "ract",
        -19.213356018066406
      ],
      [
        "ization",
        -15.116679191589355
      ],
      [
        "user",
        -15.13217544555664
      ],
      [
        "chen",
        -18.097230911254883
      ],
      [
        "▁keep",
        -15.59254550933838
      ],
      [
        "AD",
        -15.045948028564451
      ],
      [
        "itor",
        -18.036941528320312
      ],
      [
        "▁non",
        -14.807207107543944
      ],
      [
        "ird",
        -18.747726440429688
      ],
      [
        "ope",
        -17.8387508392334
      ],
      [
        "▁rest",
        -16.674976348876953
      ],
      [
        "▁dev",
        -16.68354606628418
      ],
      [
        "▁__",
        -12.28465461730957
      ],
      [
        "▁una",
        -19.83558464050293
      ],
      [
        "▁term",
        -16.436199188232422
      ],
      [
        "IS",
        -14.099931716918944
      ],
      [
        "▁pop",
        -16.767974853515625
      ],
      [
        "rist",
        -18.875139236450195
      ],
      [
        "▁since",
        -15.068025588989258
      ],
      [
        "ves",
        -17.161767959594727
      ],
      [
        "▁hard",
        -16.023900985717773
      ],
      [
        "pi",
        -14.89578628540039
      ],
      [
        "util",
        -16.191476821899414
      ],
      [
        "▁soc",
        -20.470142364501953
      ],
      [
        "ene",
        -16.89092445373535
      ],
      [
        "Exception",
        -16.266254425048828
      ],
      [
        "▁local",
        -14.98610496520996
      ],
      [
        "▁direct",
        -16.8707275390625
      ],
      [
        "▁sure",
        -15.44890022277832
      ],
      [
        "▁bro",
        -19.490324020385746
      ],
      [
        "▁da",
        -17.23513412475586
      ],
      [
        "▁</",
        -14.730762481689451
      ],
      [
        "▁current",
        -14.487295150756836
      ],
      [
        "':",
        -14.896681785583496
      ],
      [
        "Wh",
        -20.133380889892575
      ],
      [
        "▁information",
        -13.977828025817873
      ],
      [
        "▁ide",
        -20.90192413330078
      ],
      [
        "▁better",
        -15.444551467895508
      ],
      [
        "Text",
        -15.550549507141112
      ],
      [
        "raph",
        -21.625572204589844
      ],
      [
        "▁stand",
        -17.16046714782715
      ],
      [
        "▁check",
        -14.574333190917969
      ],
      [
        "▁к",
        -22.633289337158203
      ],
      [
        "▁na",
        -18.20170021057129
      ],
      [
        "((",
        -14.128198623657228
      ],
      [
        "outh",
        -19.339622497558594
      ],
      [
        "aps",
        -17.692350387573242
      ],
      [
        "▁unt",
        -20.704938888549805
      ],
      [
        "bf",
        -16.65534019470215
      ],
      [
        "▁conf",
        -18.197368621826172
      ],
      [
        "▁spe",
        -20.6171932220459
      ],
      [
        "itle",
        -24.919992446899418
      ],
      [
        "▁Col",
        -16.428321838378906
      ],
      [
        "class",
        -13.83558750152588
      ],
      [
        "ural",
        -16.773317337036133
      ],
      [
        "bers",
        -19.797603607177734
      ],
      [
        "MA",
        -15.233683586120604
      ],
      [
        "ession",
        -18.75991439819336
      ],
      [
        "▁М",
        -20.643245697021484
      ],
      [
        "Info",
        -13.808062553405762
      ],
      [
        "▁Br",
        -15.663689613342283
      ],
      [
        "▁eas",
        -22.768207550048828
      ],
      [
        "ervice",
        -25.54492950439453
      ],
      [
        "aus",
        -18.06448554992676
      ],
      [
        "ari",
        -16.37809181213379
      ],
      [
        "по",
        -20.312654495239254
      ],
      [
        "▁coun",
        -23.614803314208984
      ],
      [
        "де",
        -20.136629104614254
      ],
      [
        "())",
        -15.373146057128906
      ],
      [
        "ling",
        -15.138543128967283
      ],
      [
        "ED",
        -13.305710792541504
      ],
      [
        "ably",
        -17.6656551361084
      ],
      [
        "▁pat",
        -19.35431480407715
      ],
      [
        "org",
        -14.683150291442873
      ],
      [
        "▁id",
        -15.593794822692873
      ],
      [
        "▁г",
        -21.889949798583984
      ],
      [
        "▁tell",
        -16.57239532470703
      ],
      [
        "lex",
        -17.19411849975586
      ],
      [
        "▁allow",
        -16.29298973083496
      ],
      [
        "reen",
        -20.56349754333496
      ],
      [
        "my",
        -15.283864974975586
      ],
      [
        "▁consider",
        -17.012828826904297
      ],
      [
        "▁team",
        -15.054814338684082
      ],
      [
        "lease",
        -19.578794479370117
      ],
      [
        "htt",
        -23.03307342529297
      ],
      [
        "▁Pr",
        -15.997382164001465
      ],
      [
        "/**",
        -13.420074462890623
      ],
      [
        "▁sing",
        -19.447669982910156
      ],
      [
        "Requ",
        -22.125782012939453
      ],
      [
        "Re",
        -14.605448722839355
      ],
      [
        "ides",
        -16.882551193237305
      ],
      [
        "ches",
        -17.8435001373291
      ],
      [
        "▁object",
        -14.651272773742676
      ],
      [
        "ially",
        -20.228469848632812
      ],
      [
        "By",
        -16.53936004638672
      ],
      [
        "ся",
        -22.324308395385746
      ],
      [
        "ided",
        -17.999479293823242
      ],
      [
        "▁free",
        -14.215112686157228
      ],
      [
        "▁proble",
        -24.97722816467285
      ],
      [
        "cite",
        -17.492015838623047
      ],
      [
        "▁);",
        -15.021679878234863
      ],
      [
        "ission",
        -20.318328857421875
      ],
      [
        "▁during",
        -14.877161026000977
      ],
      [
        "▁--",
        -14.60486125946045
      ],
      [
        "ither",
        -19.64974594116211
      ],
      [
        "ля",
        -20.519306182861328
      ],
      [
        "▁leg",
        -18.086095809936523
      ],
      [
        "▁sit",
        -18.252832412719727
      ],
      [
        "ically",
        -17.409812927246094
      ],
      [
        "▁key",
        -14.45981216430664
      ],
      [
        "leg",
        -17.601619720458984
      ],
      [
        "tra",
        -15.970626831054688
      ],
      [
        "▁mom",
        -18.11553192138672
      ],
      [
        "▁expl",
        -23.154464721679688
      ],
      [
        "▁develop",
        -17.618370056152344
      ],
      [
        "▁event",
        -14.865904808044434
      ],
      [
        "▁NULL",
        -11.62712860107422
      ],
      [
        "ohn",
        -19.29750061035156
      ],
      [
        "▁///",
        -12.291788101196287
      ],
      [
        "▁business",
        -15.113195419311523
      ],
      [
        "ча",
        -19.29448509216309
      ],
      [
        "▁prof",
        -19.325687408447266
      ],
      [
        "error",
        -13.526444435119627
      ],
      [
        "▁por",
        -19.07552146911621
      ],
      [
        "▁commun",
        -19.144386291503903
      ],
      [
        "Ind",
        -17.513090133666992
      ],
      [
        "ium",
        -15.536083221435549
      ],
      [
        "Test",
        -15.935192108154297
      ],
      [
        "▁Ad",
        -15.609684944152832
      ],
      [
        "ouble",
        -19.425548553466797
      ],
      [
        "▁son",
        -17.608285903930664
      ],
      [
        "rite",
        -19.057004928588867
      ],
      [
        "ready",
        -17.088083267211914
      ],
      [
        "▁{\r",
        -125.5939712524414
      ],
      [
        "▁thing",
        -16.088972091674805
      ],
      [
        "ня",
        -20.559276580810547
      ],
      [
        "▁Ph",
        -16.575254440307617
      ],
      [
        "ped",
        -16.79788589477539
      ],
      [
        "сь",
        -22.15539932250977
      ],
      [
        "ived",
        -19.013599395751953
      ],
      [
        "You",
        -16.569875717163086
      ],
      [
        "arl",
        -19.182329177856445
      ],
      [
        "const",
        -12.322592735290527
      ],
      [
        "../",
        -21.18700408935547
      ],
      [
        "Se",
        -17.264034271240234
      ],
      [
        "Sh",
        -16.455034255981445
      ],
      [
        "▁power",
        -15.581571578979492
      ],
      [
        "ribute",
        -18.99070930480957
      ],
      [
        "▁My",
        -14.314413070678713
      ],
      [
        "▁talk",
        -17.0159912109375
      ],
      [
        "itch",
        -16.74519920349121
      ],
      [
        "▁called",
        -14.932817459106444
      ],
      [
        "▁came",
        -16.341691970825195
      ],
      [
        "▁belie",
        -22.630918502807617
      ],
      [
        "UR",
        -16.53042984008789
      ],
      [
        "Add",
        -15.53810214996338
      ],
      [
        "▁Res",
        -15.823700904846191
      ],
      [
        "aster",
        -16.916719436645508
      ],
      [
        "ella",
        -16.33946990966797
      ],
      [
        "obal",
        -22.31640625
      ],
      [
        "▁until",
        -15.396469116210938
      ],
      [
        "▁hum",
        -18.741374969482425
      ],
      [
        "CO",
        -14.642544746398926
      ],
      [
        "ately",
        -19.660812377929688
      ],
      [
        "####",
        -21.53953742980957
      ],
      [
        "public",
        -15.151484489440918
      ],
      [
        "[]",
        -14.761290550231934
      ],
      [
        "▁room",
        -16.21756935119629
      ],
      [
        "len",
        -12.90287971496582
      ],
      [
        "▁family",
        -15.181707382202148
      ],
      [
        "por",
        -18.149778366088867
      ],
      [
        "▁program",
        -15.15942096710205
      ],
      [
        "▁hist",
        -19.63376235961914
      ],
      [
        "▁mus",
        -19.88080596923828
      ],
      [
        "arge",
        -21.861841201782227
      ],
      [
        "oney",
        -18.696807861328125
      ],
      [
        "Im",
        -17.29232406616211
      ],
      [
        "else",
        -11.249921798706056
      ],
      [
        "ails",
        -19.129344940185547
      ],
      [
        "af",
        -15.91738510131836
      ],
      [
        "▁love",
        -14.952129364013672
      ],
      [
        "är",
        -19.52958106994629
      ],
      [
        "ases",
        -18.571514129638672
      ],
      [
        "pha",
        -18.273550033569336
      ],
      [
        "ours",
        -16.188274383544922
      ],
      [
        "dis",
        -15.154019355773926
      ],
      [
        "map",
        -13.872603416442873
      ],
      [
        "iver",
        -18.821361541748047
      ],
      [
        "ör",
        -19.136117935180664
      ],
      [
        "▁Bl",
        -16.03183364868164
      ],
      [
        "ateg",
        -21.8861141204834
      ],
      [
        "state",
        -13.459824562072754
      ],
      [
        "State",
        -14.288089752197266
      ],
      [
        "ertain",
        -20.521623611450195
      ],
      [
        "▁effect",
        -16.76306915283203
      ],
      [
        "print",
        -15.122766494750977
      ],
      [
        "▁big",
        -15.864886283874512
      ],
      [
        "index",
        -13.831894874572754
      ],
      [
        "▁pub",
        -18.911157608032227
      ],
      [
        "vert",
        -16.51704216003418
      ],
      [
        "ero",
        -17.077560424804688
      ],
      [
        "md",
        -15.940875053405762
      ],
      [
        "▁method",
        -15.363926887512209
      ],
      [
        "▁game",
        -15.300589561462402
      ],
      [
        "ries",
        -16.382251739501953
      ],
      [
        "lete",
        -20.675193786621097
      ],
      [
        "Item",
        -15.436601638793944
      ],
      [
        "ING",
        -14.44197940826416
      ],
      [
        "resent",
        -23.235816955566406
      ],
      [
        "ality",
        -17.303667068481445
      ],
      [
        "pty",
        -20.395248413085938
      ],
      [
        "ley",
        -14.647869110107422
      ],
      [
        "ocument",
        -26.30893898010254
      ],
      [
        "▁beg",
        -20.316123962402344
      ],
      [
        "TR",
        -15.48701286315918
      ],
      [
        "}.",
        -19.533830642700195
      ],
      [
        "▁school",
        -15.599315643310549
      ],
      [
        "hes",
        -17.540367126464844
      ],
      [
        "до",
        -20.40142822265625
      ],
      [
        "▁lot",
        -15.78829574584961
      ],
      [
        "▁took",
        -16.36964225769043
      ],
      [
        "▁adv",
        -20.201826095581055
      ],
      [
        "▁cap",
        -18.140872955322266
      ],
      [
        "MP",
        -14.635677337646484
      ],
      [
        "unk",
        -16.931842803955078
      ],
      [
        "▁light",
        -16.265697479248047
      ],
      [
        "▁later",
        -15.383748054504396
      ],
      [
        ".,",
        -16.50345230102539
      ],
      [
        "Key",
        -14.69342803955078
      ],
      [
        "itions",
        -18.32110023498535
      ],
      [
        "▁enough",
        -15.957301139831545
      ],
      [
        "▁/**",
        -10.366447448730469
      ],
      [
        "▁went",
        -16.50916862487793
      ],
      [
        "ão",
        -19.1490535736084
      ],
      [
        "▁though",
        -16.29792022705078
      ],
      [
        "▁group",
        -15.105884552001951
      ],
      [
        "▁mean",
        -16.56032943725586
      ],
      [
        "ски",
        -20.958402633666992
      ],
      [
        "AP",
        -14.901558876037598
      ],
      [
        "▁num",
        -15.367331504821776
      ],
      [
        "▁cond",
        -18.54561233520508
      ],
      [
        "ні",
        -20.17897605895996
      ],
      [
        "▁given",
        -14.868112564086914
      ],
      [
        "▁why",
        -15.896771430969238
      ],
      [
        "▁rece",
        -19.44285011291504
      ],
      [
        "▁side",
        -15.744763374328612
      ],
      [
        "▁far",
        -16.1280574798584
      ],
      [
        "Context",
        -14.468395233154297
      ],
      [
        "ме",
        -19.230972290039062
      ],
      [
        "▁log",
        -16.19720458984375
      ],
      [
        "View",
        -14.599852561950684
      ],
      [
        "▁<<",
        -13.336079597473145
      ],
      [
        "fil",
        -17.90761947631836
      ],
      [
        "aces",
        -19.40927505493164
      ],
      [
        "ency",
        -16.54598617553711
      ],
      [
        "oad",
        -21.98769187927246
      ],
      [
        "ered",
        -17.506940841674805
      ],
      [
        "▁product",
        -15.89915370941162
      ],
      [
        "ET",
        -16.017248153686523
      ],
      [
        "▁param",
        -18.37775421142578
      ],
      [
        "▁prote",
        -21.82729721069336
      ],
      [
        "tes",
        -17.44287109375
      ],
      [
        "Time",
        -14.93520164489746
      ],
      [
        "je",
        -17.390884399414062
      ],
      [
        "olution",
        -17.336315155029297
      ],
      [
        "▁ра",
        -22.844562530517575
      ],
      [
        "▁month",
        -16.437206268310547
      ],
      [
        "ference",
        -18.95709800720215
      ],
      [
        "▁appe",
        -23.005346298217773
      ],
      [
        "▁face",
        -16.252307891845703
      ],
      [
        "ened",
        -18.10789680480957
      ],
      [
        "tract",
        -18.327802658081055
      ],
      [
        "▁less",
        -16.152942657470703
      ],
      [
        "AS",
        -14.656965255737305
      ],
      [
        "ée",
        -18.6146240234375
      ],
      [
        "▁give",
        -15.658252716064451
      ],
      [
        "▁kind",
        -16.202735900878906
      ],
      [
        "▁count",
        -15.07283878326416
      ],
      [
        "count",
        -13.700045585632324
      ],
      [
        "▁stop",
        -16.20041847229004
      ],
      [
        "▁gover",
        -24.275894165039062
      ],
      [
        "ka",
        -14.992030143737791
      ],
      [
        "▁error",
        -13.761184692382812
      ],
      [
        "ences",
        -14.42494773864746
      ],
      [
        "▁mil",
        -20.01891708374023
      ],
      [
        "alf",
        -19.914628982543945
      ],
      [
        "ync",
        -20.383316040039062
      ],
      [
        "vious",
        -20.87180519104004
      ],
      [
        "ho",
        -16.048233032226562
      ],
      [
        "▁night",
        -16.16329002380371
      ],
      [
        "era",
        -16.52907943725586
      ],
      [
        "▁про",
        -20.96937370300293
      ],
      [
        "▁sol",
        -19.34305763244629
      ],
      [
        "men",
        -16.140663146972656
      ],
      [
        "▁water",
        -15.622546195983888
      ],
      [
        "ering",
        -16.773605346679688
      ],
      [
        "▁lim",
        -19.362138748168945
      ],
      [
        "Param",
        -14.86239242553711
      ],
      [
        "▁house",
        -16.31975555419922
      ],
      [
        "▁System",
        -15.514883995056152
      ],
      [
        "▁pay",
        -16.412425994873047
      ],
      [
        "▁:=",
        -19.049325942993164
      ],
      [
        "uro",
        -17.80261993408203
      ],
      [
        "oci",
        -19.84090232849121
      ],
      [
        "zy",
        -17.191858291625977
      ],
      [
        "▁already",
        -15.22133445739746
      ],
      [
        ",\\",
        -17.911306381225586
      ],
      [
        "length",
        -14.720474243164062
      ],
      [
        "▁si",
        -18.47903060913086
      ],
      [
        "▁interest",
        -16.78197479248047
      ],
      [
        "aff",
        -17.279739379882812
      ],
      [
        "cted",
        -18.517822265625
      ],
      [
        "ention",
        -17.469806671142578
      ],
      [
        "▁до",
        -21.266029357910156
      ],
      [
        "ume",
        -17.11393165588379
      ],
      [
        "▁appro",
        -20.005510330200195
      ],
      [
        "bre",
        -18.3233642578125
      ],
      [
        "IG",
        -15.701483726501465
      ],
      [
        "▁throw",
        -17.559873580932617
      ],
      [
        "mathcal",
        -18.36107063293457
      ],
      [
        "irl",
        -19.591794967651367
      ],
      [
        "▁prom",
        -20.05528450012207
      ],
      [
        "oss",
        -17.22789764404297
      ],
      [
        "▁request",
        -15.203631401062012
      ],
      [
        "equation",
        -15.15516757965088
      ],
      [
        "ology",
        -14.710947036743164
      ],
      [
        "mit",
        -16.452064514160156
      ],
      [
        "▁pack",
        -17.75128173828125
      ],
      [
        "ino",
        -15.576716423034668
      ],
      [
        "array",
        -14.63984203338623
      ],
      [
        "za",
        -16.37963104248047
      ],
      [
        "til",
        -18.665987014770508
      ],
      [
        "UN",
        -14.32817840576172
      ],
      [
        "▁present",
        -16.0382137298584
      ],
      [
        "▁organ",
        -18.891469955444336
      ],
      [
        "File",
        -14.651556015014648
      ],
      [
        "▁orig",
        -18.914487838745117
      ],
      [
        "▁full",
        -15.074233055114746
      ],
      [
        "istr",
        -19.556411743164062
      ],
      [
        "▁flo",
        -19.040512084960938
      ],
      [
        "hr",
        -15.703343391418455
      ],
      [
        "▁assert",
        -16.115966796875
      ],
      [
        "ards",
        -17.561582565307617
      ],
      [
        "url",
        -16.406383514404297
      ],
      [
        "enn",
        -18.543018341064453
      ],
      [
        "sl",
        -15.72928524017334
      ],
      [
        "▁А",
        -19.960119247436523
      ],
      [
        "▁cho",
        -18.969823837280273
      ],
      [
        "▁level",
        -15.246933937072754
      ],
      [
        "OT",
        -15.571468353271484
      ],
      [
        "word",
        -15.889365196228027
      ],
      [
        "▁body",
        -15.970126152038574
      ],
      [
        "▁user",
        -15.032496452331545
      ],
      [
        "ía",
        -18.87217140197754
      ],
      [
        "Qu",
        -16.847837448120117
      ],
      [
        "▁main",
        -14.988269805908203
      ],
      [
        "AB",
        -15.793341636657717
      ],
      [
        "ploy",
        -19.52740478515625
      ],
      [
        "Event",
        -14.976923942565918
      ],
      [
        "▁super",
        -15.98000717163086
      ],
      [
        "oken",
        -19.121715545654297
      ],
      [
        "▁Н",
        -21.35112762451172
      ],
      [
        "As",
        -15.90860652923584
      ],
      [
        "thers",
        -19.740299224853516
      ],
      [
        "мо",
        -20.499645233154297
      ],
      [
        "ку",
        -20.715272903442383
      ],
      [
        "▁days",
        -15.558204650878906
      ],
      [
        "▁done",
        -14.768802642822266
      ],
      [
        "▁view",
        -15.371590614318848
      ],
      [
        "side",
        -16.059066772460938
      ],
      [
        "си",
        -20.03984642028809
      ],
      [
        "');",
        -17.138826370239258
      ],
      [
        "▁vol",
        -18.619483947753903
      ],
      [
        "▁tot",
        -19.98194122314453
      ],
      [
        "case",
        -11.910118103027344
      ],
      [
        "▁aff",
        -19.64967918395996
      ],
      [
        "Request",
        -15.242769241333008
      ],
      [
        "▁Man",
        -15.101075172424316
      ],
      [
        "\\\\",
        -17.17078971862793
      ],
      [
        "▁John",
        -14.674934387207031
      ],
      [
        "▁Б",
        -20.035249710083008
      ],
      [
        "orth",
        -18.045578002929688
      ],
      [
        "▁je",
        -19.55881118774414
      ],
      [
        "▁une",
        -20.48603248596191
      ],
      [
        "la",
        -14.78217315673828
      ],
      [
        "[\"",
        -19.478336334228516
      ],
      [
        "field",
        -14.467153549194336
      ],
      [
        "▁US",
        -15.175164222717283
      ],
      [
        "ico",
        -17.225360870361328
      ],
      [
        "▁perform",
        -17.029476165771484
      ],
      [
        "ailable",
        -24.54408264160156
      ],
      [
        "Config",
        -15.659741401672363
      ],
      [
        "Or",
        -16.365327835083008
      ],
      [
        "▁model",
        -15.899413108825684
      ],
      [
        "ales",
        -17.338947296142578
      ],
      [
        "▁create",
        -15.070573806762695
      ],
      [
        "▁ann",
        -20.732196807861328
      ],
      [
        "ances",
        -18.15182876586914
      ],
      [
        "IL",
        -15.457315444946287
      ],
      [
        "ination",
        -16.75482177734375
      ],
      [
        "▁Im",
        -16.512165069580078
      ],
      [
        "ante",
        -18.160669326782227
      ],
      [
        "ana",
        -14.986926078796388
      ],
      [
        "ан",
        -20.77461624145508
      ],
      [
        "▁told",
        -16.708932876586914
      ],
      [
        "config",
        -14.62700366973877
      ],
      [
        "\"]",
        -19.131603240966797
      ],
      [
        "met",
        -17.314769744873047
      ],
      [
        "lt",
        -16.37846565246582
      ],
      [
        "▁text",
        -15.66781520843506
      ],
      [
        "▁May",
        -14.399006843566896
      ],
      [
        "▁org",
        -19.604585647583008
      ],
      [
        "▁port",
        -15.666980743408203
      ],
      [
        "Pl",
        -18.150634765625
      ],
      [
        "ently",
        -18.43174743652344
      ],
      [
        "▁door",
        -17.4717960357666
      ],
      [
        "US",
        -14.898330688476562
      ],
      [
        "▁(*",
        -14.737638473510742
      ],
      [
        "kt",
        -17.555923461914062
      ],
      [
        "ES",
        -14.870911598205566
      ],
      [
        "ential",
        -17.3468017578125
      ],
      [
        "▁iss",
        -22.511545181274418
      ],
      [
        "▁inc",
        -18.426084518432617
      ],
      [
        "Node",
        -14.693998336791992
      ],
      [
        "ively",
        -18.177942276000977
      ],
      [
        "▁asked",
        -16.7840633392334
      ],
      [
        "irt",
        -19.32694625854492
      ],
      [
        "▁Te",
        -16.370389938354492
      ],
      [
        "▁report",
        -15.944975852966309
      ],
      [
        "▁chang",
        -22.405929565429688
      ],
      [
        "сти",
        -20.429161071777344
      ],
      [
        "▁along",
        -15.895505905151367
      ],
      [
        "▁change",
        -15.159408569335938
      ],
      [
        "Size",
        -13.990093231201172
      ],
      [
        "▁ever",
        -16.107107162475586
      ],
      [
        "▁occ",
        -21.004547119140625
      ],
      [
        "ury",
        -17.49296760559082
      ],
      [
        "▁mind",
        -16.570178985595703
      ],
      [
        "order",
        -16.34600830078125
      ],
      [
        "point",
        -15.170326232910156
      ],
      [
        "сто",
        -20.1981201171875
      ],
      [
        "▁whe",
        -23.10944938659668
      ],
      [
        "▁important",
        -15.807244300842283
      ],
      [
        "des",
        -16.753183364868164
      ],
      [
        "▁Not",
        -15.096014022827148
      ],
      [
        "▁writ",
        -20.65615463256836
      ],
      [
        "▁eyes",
        -17.482032775878906
      ],
      [
        "▁desc",
        -18.299884796142575
      ],
      [
        "most",
        -17.66925811767578
      ],
      [
        "ks",
        -16.474990844726562
      ],
      [
        "▁bit",
        -14.62567138671875
      ],
      [
        "▁success",
        -15.528943061828612
      ],
      [
        "ть",
        -19.592939376831055
      ],
      [
        "бо",
        -20.512516021728516
      ],
      [
        "core",
        -15.370516777038574
      ],
      [
        "}(",
        -20.84501838684082
      ],
      [
        "▁array",
        -15.391974449157717
      ],
      [
        "lin",
        -15.991846084594728
      ],
      [
        "lish",
        -18.604982376098633
      ],
      [
        "▁following",
        -13.953776359558104
      ],
      [
        "Field",
        -16.042522430419922
      ],
      [
        "ids",
        -16.677358627319336
      ],
      [
        "hing",
        -19.73076820373535
      ],
      [
        "▁cal",
        -18.354013442993164
      ],
      [
        "Is",
        -14.792732238769531
      ],
      [
        "aring",
        -18.081083297729492
      ],
      [
        "lev",
        -18.24858665466309
      ],
      [
        "alt",
        -16.990293502807617
      ],
      [
        "CH",
        -14.319412231445312
      ],
      [
        "▁dé",
        -21.355958938598633
      ],
      [
        "alpha",
        -16.95587921142578
      ],
      [
        "▁four",
        -15.874871253967283
      ],
      [
        "▁law",
        -15.626952171325684
      ],
      [
        "▁се",
        -17.916322708129883
      ],
      [
        "iron",
        -19.499996185302734
      ],
      [
        "▁disc",
        -17.665464401245117
      ],
      [
        "се",
        -20.910032272338867
      ],
      [
        "ken",
        -17.104352951049805
      ],
      [
        "node",
        -14.12339687347412
      ],
      [
        "▁Par",
        -16.771167755126953
      ],
      [
        "▁Eng",
        -18.08671188354492
      ],
      [
        "▁move",
        -16.215198516845703
      ],
      [
        "▁License",
        -13.895452499389648
      ],
      [
        "cul",
        -18.3681583404541
      ],
      [
        "ione",
        -19.361431121826172
      ],
      [
        ")$",
        -18.249513626098633
      ],
      [
        "▁tw",
        -19.609006881713867
      ],
      [
        "We",
        -15.760991096496582
      ],
      [
        "sel",
        -16.06279945373535
      ],
      [
        "▁With",
        -15.00228500366211
      ],
      [
        "▁once",
        -14.43118953704834
      ],
      [
        "Service",
        -16.31606101989746
      ],
      [
        "bol",
        -17.758827209472656
      ],
      [
        "ured",
        -17.92353057861328
      ],
      [
        "ida",
        -17.06867027282715
      ],
      [
        "▁Qu",
        -15.555295944213867
      ],
      [
        "▁grow",
        -17.630002975463867
      ],
      [
        "▁conne",
        -21.780271530151367
      ],
      [
        "EX",
        -14.272954940795898
      ],
      [
        "▁htt",
        -22.930606842041016
      ],
      [
        "▁};",
        -10.40019416809082
      ],
      [
        "▁walk",
        -17.331092834472656
      ],
      [
        "▁init",
        -16.503223419189453
      ],
      [
        "nal",
        -18.873525619506836
      ],
      [
        "ender",
        -17.32080078125
      ],
      [
        "cription",
        -19.79718780517578
      ],
      [
        "mber",
        -18.413793563842773
      ],
      [
        "lected",
        -20.36177444458008
      ],
      [
        "po",
        -16.132394790649414
      ],
      [
        "▁nil",
        -18.592588424682617
      ],
      [
        "▁prob",
        -19.27269744873047
      ],
      [
        "чи",
        -20.70755386352539
      ],
      [
        "▁Ste",
        -17.081626892089844
      ],
      [
        "ison",
        -16.880558013916016
      ],
      [
        "ands",
        -18.11924743652344
      ],
      [
        "osed",
        -20.597911834716797
      ],
      [
        "же",
        -21.30968856811523
      ],
      [
        "▁His",
        -16.1534366607666
      ],
      [
        "ür",
        -18.723703384399418
      ],
      [
        "Man",
        -17.028722763061523
      ],
      [
        "Element",
        -16.118852615356445
      ],
      [
        "▁able",
        -16.63128662109375
      ],
      [
        "Index",
        -14.523019790649414
      ],
      [
        "search",
        -16.783662796020508
      ],
      [
        "▁mag",
        -19.474994659423828
      ],
      [
        "ар",
        -20.967885971069336
      ],
      [
        "▁course",
        -16.054819107055664
      ],
      [
        "▁Car",
        -15.373018264770508
      ],
      [
        "▁exp",
        -16.135818481445312
      ],
      [
        "aph",
        -18.675825119018555
      ],
      [
        "▁mit",
        -19.123950958251953
      ],
      [
        "▁doesn",
        -15.8818941116333
      ],
      [
        "▁default",
        -14.58596420288086
      ],
      [
        "/>",
        -19.250280380249023
      ],
      [
        "aim",
        -19.766620635986328
      ],
      [
        "▁service",
        -14.978010177612305
      ],
      [
        "▁within",
        -15.360268592834473
      ],
      [
        "angu",
        -20.198301315307617
      ],
      [
        "▁Д",
        -21.59482192993164
      ],
      [
        "uffer",
        -20.305625915527344
      ],
      [
        "AG",
        -16.33770179748535
      ],
      [
        "▁Do",
        -14.65458869934082
      ],
      [
        "▁incre",
        -24.2154541015625
      ],
      [
        "▁understand",
        -16.783288955688477
      ],
      [
        "}^",
        -19.62215232849121
      ],
      [
        "▁looked",
        -17.778610229492188
      ],
      [
        "gen",
        -15.504302024841309
      ],
      [
        "ailed",
        -19.544658660888672
      ],
      [
        "▁е",
        -22.189048767089844
      ],
      [
        "ayer",
        -19.5341854095459
      ],
      [
        "▁One",
        -14.830080032348633
      ],
      [
        "▁bas",
        -19.27199935913086
      ],
      [
        "▁job",
        -16.018619537353516
      ],
      [
        "mu",
        -16.18878746032715
      ],
      [
        "but",
        -17.25811195373535
      ],
      [
        "elta",
        -21.78462028503418
      ],
      [
        "▁Christ",
        -16.671716690063477
      ],
      [
        "uration",
        -19.57473945617676
      ],
      [
        "▁record",
        -15.62378978729248
      ],
      [
        "▁Univers",
        -18.22414207458496
      ],
      [
        "ivid",
        -20.564577102661133
      ],
      [
        "valid",
        -16.593921661376953
      ],
      [
        "▁Р",
        -21.27062606811523
      ],
      [
        "▁hold",
        -16.746679306030273
      ],
      [
        "▁table",
        -15.056815147399902
      ],
      [
        "ones",
        -17.484851837158203
      ],
      [
        "link",
        -14.938340187072754
      ],
      [
        "▁Ge",
        -15.005455017089844
      ],
      [
        "▁offer",
        -16.38423728942871
      ],
      [
        "ster",
        -15.813532829284668
      ],
      [
        "Form",
        -17.51236915588379
      ],
      [
        "={",
        -18.561952590942383
      ],
      [
        "▁не",
        -21.468660354614254
      ],
      [
        "stance",
        -19.98255157470703
      ],
      [
        "▁govern",
        -19.60217666625977
      ],
      [
        "▁techn",
        -20.130754470825195
      ],
      [
        "▁prim",
        -19.725276947021484
      ],
      [
        "*.",
        -21.621627807617188
      ],
      [
        "cho",
        -17.16547966003418
      ],
      [
        "max",
        -14.297712326049805
      ],
      [
        "▁fore",
        -18.68964576721191
      ],
      [
        "▁Can",
        -15.328012466430664
      ],
      [
        "▁polit",
        -21.311187744140625
      ],
      [
        "ories",
        -17.506608963012695
      ],
      [
        "▁times",
        -15.909055709838867
      ],
      [
        "▁dans",
        -19.902023315429688
      ],
      [
        "▁air",
        -16.470260620117188
      ],
      [
        "▁anything",
        -16.3911075592041
      ],
      [
        "▁sever",
        -19.741724014282227
      ],
      [
        "acy",
        -16.111791610717773
      ],
      [
        "}_",
        -22.212257385253903
      ],
      [
        "He",
        -17.23760986328125
      ],
      [
        "▁least",
        -15.866092681884766
      ],
      [
        "ips",
        -17.728675842285156
      ],
      [
        "ENT",
        -15.44412899017334
      ],
      [
        "do",
        -14.199827194213867
      ],
      [
        "▁от",
        -21.498836517333984
      ],
      [
        "▁cost",
        -16.169755935668945
      ],
      [
        ".”",
        -15.283409118652344
      ],
      [
        "▁children",
        -15.592559814453123
      ],
      [
        "ability",
        -15.530077934265137
      ],
      [
        "But",
        -18.38443946838379
      ],
      [
        "▁path",
        -15.552491188049316
      ],
      [
        "result",
        -13.960999488830566
      ],
      [
        "acter",
        -19.36453437805176
      ],
      [
        "▁element",
        -15.94287395477295
      ],
      [
        "ee",
        -14.832160949707031
      ],
      [
        "▁wait",
        -16.22611427307129
      ],
      [
        "▁money",
        -16.031612396240234
      ],
      [
        "Map",
        -15.30520725250244
      ],
      [
        "td",
        -16.120750427246094
      ],
      [
        "oin",
        -18.776470184326172
      ],
      [
        "iving",
        -16.94231414794922
      ],
      [
        "icht",
        -20.070064544677734
      ],
      [
        "icy",
        -19.36247444152832
      ],
      [
        "sch",
        -16.903167724609375
      ],
      [
        "ste",
        -17.70851707458496
      ],
      [
        "ду",
        -21.34920310974121
      ],
      [
        "ored",
        -18.275808334350582
      ],
      [
        "oud",
        -19.132049560546875
      ],
      [
        "ille",
        -17.737226486206055
      ],
      [
        "ised",
        -16.9082088470459
      ],
      [
        "plication",
        -17.66316795349121
      ],
      [
        "▁custom",
        -16.69978141784668
      ],
      [
        "▁having",
        -16.04783821105957
      ],
      [
        "ponent",
        -19.340784072875977
      ],
      [
        "▁By",
        -14.116679191589355
      ],
      [
        "ules",
        -19.958988189697266
      ],
      [
        "ued",
        -19.651609420776367
      ],
      [
        "atter",
        -18.097890853881836
      ],
      [
        "And",
        -15.92489528656006
      ],
      [
        "itive",
        -16.84870719909668
      ],
      [
        "Def",
        -15.780991554260254
      ],
      [
        "▁moment",
        -17.136234283447266
      ],
      [
        "aterial",
        -27.05289649963379
      ],
      [
        "Class",
        -15.45242977142334
      ],
      [
        "ograph",
        -19.502412796020508
      ],
      [
        "ike",
        -17.602285385131836
      ],
      [
        "▁large",
        -15.844522476196287
      ],
      [
        "▁####",
        -12.049032211303713
      ],
      [
        "▁either",
        -15.390339851379396
      ],
      [
        "duct",
        -18.05518913269043
      ],
      [
        "▁Then",
        -16.561765670776367
      ],
      [
        "▁Gu",
        -15.66858959197998
      ],
      [
        "olean",
        -25.935361862182617
      ],
      [
        "pert",
        -18.92737579345703
      ],
      [
        "▁Get",
        -13.67441177368164
      ],
      [
        "▁Ab",
        -16.312946319580078
      ],
      [
        "▁short",
        -14.967629432678224
      ],
      [
        "On",
        -15.938857078552246
      ],
      [
        "iment",
        -18.16715431213379
      ],
      [
        "▁project",
        -15.689724922180176
      ],
      [
        "cript",
        -18.924116134643555
      ],
      [
        "▁including",
        -15.071368217468262
      ],
      [
        "ния",
        -19.51154327392578
      ],
      [
        "▁making",
        -15.9435396194458
      ],
      [
        "▁someone",
        -16.55381202697754
      ],
      [
        "▁Fl",
        -16.18007469177246
      ],
      [
        "▁sat",
        -18.21870803833008
      ],
      [
        "▁company",
        -15.542084693908691
      ],
      [
        "ocus",
        -21.891210556030273
      ],
      [
        "pu",
        -16.536792755126953
      ],
      [
        "▁God",
        -15.918128967285156
      ],
      [
        "ification",
        -15.982906341552734
      ],
      [
        "No",
        -15.275964736938477
      ],
      [
        "▁sn",
        -17.336610794067383
      ],
      [
        "ano",
        -16.365257263183594
      ],
      [
        "ga",
        -15.348861694335938
      ],
      [
        "▁au",
        -18.491294860839844
      ],
      [
        "▁cou",
        -20.795564651489254
      ],
      [
        "ás",
        -19.399507522583008
      ],
      [
        "ended",
        -16.80561637878418
      ],
      [
        "ту",
        -21.013839721679688
      ],
      [
        "ober",
        -19.157224655151367
      ],
      [
        "▁nothing",
        -16.277324676513672
      ],
      [
        "▁net",
        -16.07876968383789
      ],
      [
        "▁pot",
        -18.031021118164062
      ],
      [
        "▁typ",
        -18.472177505493164
      ],
      [
        "▁item",
        -15.940713882446287
      ],
      [
        "rew",
        -18.01669692993164
      ],
      [
        "Att",
        -18.05308532714844
      ],
      [
        "▁young",
        -16.632801055908203
      ],
      [
        "}\r",
        -125.5939712524414
      ],
      [
        "nder",
        -18.454225540161133
      ],
      [
        "start",
        -13.714698791503906
      ],
      [
        "▁Sc",
        -16.04839515686035
      ],
      [
        "*)",
        -14.232922554016112
      ],
      [
        "▁enc",
        -17.797325134277344
      ],
      [
        "▁women",
        -15.042452812194824
      ],
      [
        "▁looking",
        -15.932318687438965
      ],
      [
        "▁ро",
        -22.616466522216797
      ],
      [
        "▁health",
        -15.90367317199707
      ],
      [
        "Path",
        -15.642789840698242
      ],
      [
        "▁After",
        -15.315691947937012
      ],
      [
        "▁mult",
        -20.13192367553711
      ],
      [
        "▁{\\",
        -16.252185821533203
      ],
      [
        "▁land",
        -17.21247100830078
      ],
      [
        "orld",
        -26.188682556152344
      ],
      [
        "▁Des",
        -17.761016845703125
      ],
      [
        "▁eng",
        -20.485912322998047
      ],
      [
        "input",
        -15.167143821716309
      ],
      [
        "▁Pol",
        -16.871097564697266
      ],
      [
        "\"\"",
        -19.24173164367676
      ],
      [
        "Code",
        -15.591103553771973
      ],
      [
        "▁supp",
        -21.497472763061523
      ],
      [
        "ainer",
        -20.896636962890625
      ],
      [
        "heck",
        -21.200746536254883
      ],
      [
        "▁mor",
        -19.885543823242188
      ],
      [
        "▁mill",
        -17.635162353515625
      ],
      [
        "▁aw",
        -21.87942886352539
      ],
      [
        "fs",
        -14.75703239440918
      ],
      [
        "▁doing",
        -16.171710968017578
      ],
      [
        "tings",
        -19.1307430267334
      ],
      [
        "ades",
        -18.11695098876953
      ],
      [
        "▁toget",
        -24.88882827758789
      ],
      [
        "▁certain",
        -16.866230010986328
      ],
      [
        "▁together",
        -16.03860092163086
      ],
      [
        "CE",
        -15.403326988220217
      ],
      [
        "ideo",
        -23.31900978088379
      ],
      [
        "▁American",
        -13.251830101013184
      ],
      [
        "ony",
        -17.238431930541992
      ],
      [
        "idd",
        -20.25458526611328
      ],
      [
        "II",
        -15.907194137573242
      ],
      [
        "ged",
        -16.718093872070312
      ],
      [
        "ables",
        -18.297775268554688
      ],
      [
        "▁ident",
        -19.398481369018555
      ],
      [
        "iod",
        -20.468212127685547
      ],
      [
        "▁parent",
        -16.281877517700195
      ],
      [
        "For",
        -15.231867790222168
      ],
      [
        "ambda",
        -25.651182174682617
      ],
      [
        "ando",
        -18.790916442871097
      ],
      [
        "=\\",
        -18.856996536254883
      ],
      [
        "aged",
        -18.67445945739746
      ],
      [
        "ending",
        -17.36937141418457
      ],
      [
        "Int",
        -14.90431785583496
      ],
      [
        "▁possible",
        -15.592018127441406
      ],
      [
        "▁со",
        -21.75505256652832
      ],
      [
        "ivity",
        -17.770671844482422
      ],
      [
        "num",
        -13.757689476013184
      ],
      [
        "rt",
        -14.934595108032228
      ],
      [
        "ajor",
        -19.450096130371097
      ],
      [
        "create",
        -15.429798126220703
      ],
      [
        "ride",
        -18.390316009521484
      ],
      [
        "▁knew",
        -17.818836212158203
      ],
      [
        "bit",
        -14.380404472351074
      ],
      [
        "itional",
        -18.607027053833008
      ],
      [
        "▁lik",
        -22.198720932006836
      ],
      [
        "▁Her",
        -16.105693817138672
      ],
      [
        "ension",
        -18.201704025268555
      ],
      [
        "\".",
        -15.606739044189451
      ],
      [
        "oto",
        -17.898359298706055
      ],
      [
        "▁exist",
        -17.253170013427734
      ],
      [
        "aken",
        -19.223711013793945
      ],
      [
        "▁actually",
        -16.08935546875
      ],
      [
        "ca",
        -15.206298828125
      ],
      [
        "▁Г",
        -20.428394317626953
      ],
      [
        "хо",
        -21.199934005737305
      ],
      [
        "inn",
        -18.04764938354492
      ],
      [
        "All",
        -15.85452938079834
      ],
      [
        "buf",
        -13.193530082702637
      ],
      [
        "▁Me",
        -14.892385482788086
      ],
      [
        "▁seen",
        -16.414104461669922
      ],
      [
        "ops",
        -15.671165466308594
      ],
      [
        "Not",
        -16.547727584838867
      ],
      [
        "▁control",
        -15.416266441345217
      ],
      [
        "▁respon",
        -25.065074920654297
      ],
      [
        "};",
        -13.789761543273926
      ],
      [
        "ilt",
        -18.452524185180664
      ],
      [
        "isk",
        -18.450918197631836
      ],
      [
        "▁bad",
        -15.822035789489746
      ],
      [
        "▁often",
        -16.247798919677734
      ],
      [
        "▁past",
        -16.03592872619629
      ],
      [
        "aper",
        -18.601112365722656
      ],
      [
        "▁reason",
        -16.584455490112305
      ],
      [
        "eters",
        -20.350202560424805
      ],
      [
        "▁wanted",
        -16.93185806274414
      ],
      [
        "ura",
        -16.252222061157227
      ],
      [
        "table",
        -13.95274543762207
      ],
      [
        "ormal",
        -20.805416107177734
      ],
      [
        "width",
        -14.987418174743652
      ],
      [
        "га",
        -20.076295852661133
      ],
      [
        "ptr",
        -13.09388256072998
      ],
      [
        "▁dest",
        -17.478382110595703
      ],
      [
        "▁design",
        -15.79037094116211
      ],
      [
        "▁sound",
        -16.718299865722656
      ],
      [
        "▁plan",
        -16.13788414001465
      ],
      [
        "▁base",
        -15.273313522338867
      ],
      [
        "hand",
        -16.750885009765625
      ],
      [
        "gs",
        -16.34185028076172
      ],
      [
        "▁says",
        -15.125645637512209
      ],
      [
        "function",
        -15.38155746459961
      ],
      [
        "▁tri",
        -17.833965301513672
      ],
      [
        "mt",
        -16.184396743774414
      ],
      [
        "▁invest",
        -18.925710678100582
      ],
      [
        "▁available",
        -14.620331764221191
      ],
      [
        "ayout",
        -23.999032974243164
      ],
      [
        "▁och",
        -21.625205993652344
      ],
      [
        "▁las",
        -20.33393669128418
      ],
      [
        "illed",
        -18.251632690429688
      ],
      [
        "Val",
        -16.12928009033203
      ],
      [
        "▁ф",
        -23.59684181213379
      ],
      [
        "iety",
        -18.94744873046875
      ],
      [
        "mon",
        -15.591231346130373
      ],
      [
        "Hand",
        -18.543127059936523
      ],
      [
        "Fr",
        -17.76521873474121
      ],
      [
        "iam",
        -17.985702514648438
      ],
      [
        "pace",
        -19.700775146484375
      ],
      [
        "▁Ob",
        -17.138994216918945
      ],
      [
        "▁para",
        -18.08407974243164
      ],
      [
        "▁meet",
        -16.942726135253906
      ],
      [
        "▁sum",
        -16.898488998413086
      ],
      [
        "Message",
        -15.43879508972168
      ],
      [
        "ici",
        -18.379270553588867
      ],
      [
        "▁known",
        -15.824084281921388
      ],
      [
        "▁gen",
        -17.578977584838867
      ],
      [
        "amma",
        -19.9560489654541
      ],
      [
        "arr",
        -16.528167724609375
      ],
      [
        "▁tre",
        -20.073625564575195
      ],
      [
        "oke",
        -16.80181884765625
      ],
      [
        "uth",
        -18.146894454956055
      ],
      [
        "~\\",
        -18.48801612854004
      ],
      [
        "▁experience",
        -15.658830642700195
      ],
      [
        "icle",
        -19.67598342895508
      ],
      [
        "▁Il",
        -18.038406372070312
      ],
      [
        "▁sent",
        -16.298877716064453
      ],
      [
        "▁others",
        -16.218921661376953
      ],
      [
        "▁soft",
        -17.525415420532227
      ],
      [
        "IP",
        -14.33241844177246
      ],
      [
        "▁max",
        -15.30620288848877
      ],
      [
        "ball",
        -15.765677452087402
      ],
      [
        "▁market",
        -16.195716857910156
      ],
      [
        "▁pour",
        -19.241241455078125
      ],
      [
        "pression",
        -18.031414031982425
      ],
      [
        "eps",
        -18.258115768432617
      ],
      [
        "▁saw",
        -17.0118465423584
      ],
      [
        "▁across",
        -16.13609504699707
      ],
      [
        "▁Su",
        -16.45864486694336
      ],
      [
        "Over",
        -17.55210304260254
      ],
      [
        "ние",
        -20.556232452392575
      ],
      [
        "ulation",
        -15.972715377807615
      ],
      [
        "▁Reg",
        -16.161474227905273
      ],
      [
        "▁+=",
        -13.67963409423828
      ],
      [
        "body",
        -16.40309715270996
      ],
      [
        ")\\",
        -16.458250045776367
      ],
      [
        "▁print",
        -15.941652297973633
      ],
      [
        "▁при",
        -21.44288444519043
      ],
      [
        "db",
        -14.739171028137209
      ],
      [
        "ources",
        -23.64917755126953
      ],
      [
        "wards",
        -17.806049346923828
      ],
      [
        "▁black",
        -16.24074363708496
      ],
      [
        "со",
        -20.98272705078125
      ],
      [
        "ili",
        -17.220556259155273
      ],
      [
        "▁Ed",
        -16.39853286743164
      ],
      [
        "▁complet",
        -22.39434814453125
      ],
      [
        "▁single",
        -15.392704963684082
      ],
      [
        "▁IN",
        -14.516608238220217
      ],
      [
        "ached",
        -17.764333724975586
      ],
      [
        "bt",
        -16.712873458862305
      ],
      [
        "▁code",
        -14.13295078277588
      ],
      [
        "▁bool",
        -13.067776679992676
      ],
      [
        "▁area",
        -15.380931854248049
      ],
      [
        "▁require",
        -17.126508712768555
      ],
      [
        "▁problem",
        -16.033855438232422
      ],
      [
        "aced",
        -19.94645881652832
      ],
      [
        "Equ",
        -19.620655059814453
      ],
      [
        "▁config",
        -16.532577514648438
      ],
      [
        "vec",
        -15.906988143920898
      ],
      [
        "ney",
        -16.230731964111328
      ],
      [
        "cy",
        -16.200511932373047
      ],
      [
        "Al",
        -16.210344314575195
      ],
      [
        "▁account",
        -16.132604598999023
      ],
      [
        "ymbol",
        -26.849151611328125
      ],
      [
        "▁ste",
        -18.65949058532715
      ],
      [
        "ges",
        -17.68607521057129
      ],
      [
        "Array",
        -14.494163513183594
      ],
      [
        "empl",
        -21.33524513244629
      ],
      [
        "context",
        -14.599616050720217
      ],
      [
        "Des",
        -18.26366424560547
      ],
      [
        "Result",
        -15.304616928100586
      ],
      [
        "ecut",
        -23.11015892028809
      ],
      [
        "▁target",
        -15.50349235534668
      ],
      [
        "▁getting",
        -16.249982833862305
      ],
      [
        "\"/>",
        -20.17011833190918
      ],
      [
        "ogle",
        -22.74868392944336
      ],
      [
        "▁himself",
        -17.542705535888672
      ],
      [
        "▁wasn",
        -17.54159164428711
      ],
      [
        "▁block",
        -14.819193840026855
      ],
      [
        "▁ant",
        -20.7203311920166
      ],
      [
        "▁York",
        -14.895746231079102
      ],
      [
        "▁become",
        -16.167261123657227
      ],
      [
        "iff",
        -16.60633087158203
      ],
      [
        "ports",
        -17.834125518798828
      ],
      [
        "reate",
        -21.16762924194336
      ],
      [
        "='",
        -18.156829833984375
      ],
      [
        "cd",
        -16.0327205657959
      ],
      [
        "location",
        -16.65826416015625
      ],
      [
        "ет",
        -21.002355575561523
      ],
      [
        "▁access",
        -15.076983451843262
      ],
      [
        "gress",
        -18.901708602905273
      ],
      [
        "ros",
        -16.365205764770508
      ],
      [
        "Up",
        -16.48658561706543
      ],
      [
        "▁working",
        -15.75357437133789
      ],
      [
        "▁Am",
        -15.65089511871338
      ],
      [
        "iqu",
        -19.432985305786133
      ],
      [
        "cer",
        -16.574066162109375
      ],
      [
        "▁((",
        -14.061790466308594
      ],
      [
        "▁Per",
        -15.94159698486328
      ],
      [
        "▁func",
        -16.73585319519043
      ],
      [
        "▁girl",
        -17.39251136779785
      ],
      [
        "▁above",
        -14.888572692871094
      ],
      [
        "pen",
        -17.80152702331543
      ],
      [
        "пи",
        -21.265411376953125
      ],
      [
        "ido",
        -18.335092544555664
      ],
      [
        "▁version",
        -14.689298629760742
      ],
      [
        "TY",
        -17.1732120513916
      ],
      [
        "▁;",
        -17.252883911132812
      ],
      [
        "mary",
        -19.62160873413086
      ],
      [
        "abled",
        -23.441638946533203
      ],
      [
        "annel",
        -22.526203155517575
      ],
      [
        "▁example",
        -15.668462753295898
      ],
      [
        "▁context",
        -15.238388061523438
      ],
      [
        "OP",
        -14.575902938842772
      ],
      [
        "▁red",
        -16.637117385864258
      ],
      [
        "▁cir",
        -21.772232055664062
      ],
      [
        "sm",
        -15.686469078063965
      ],
      [
        "Log",
        -15.578797340393066
      ],
      [
        "▁space",
        -15.41617488861084
      ],
      [
        "▁fut",
        -20.377716064453125
      ],
      [
        "▁Gener",
        -20.133207321166992
      ],
      [
        "ills",
        -17.356853485107422
      ],
      [
        "▁dri",
        -20.65955924987793
      ],
      [
        "_.",
        -17.64297866821289
      ],
      [
        "▁felt",
        -17.77189826965332
      ],
      [
        "▁offic",
        -20.740354537963867
      ],
      [
        "▁===",
        -17.55413055419922
      ],
      [
        "ii",
        -15.822897911071776
      ],
      [
        "▁started",
        -16.09651756286621
      ],
      [
        "▁Т",
        -20.561946868896484
      ],
      [
        "▁});",
        -17.252294540405273
      ],
      [
        "js",
        -16.964176177978516
      ],
      [
        "▁front",
        -16.46402359008789
      ],
      [
        "▁almost",
        -16.8441162109375
      ],
      [
        "irm",
        -18.6389102935791
      ],
      [
        "!\"",
        -17.041385650634766
      ],
      [
        "signed",
        -17.365453720092773
      ],
      [
        "▁yet",
        -15.755939483642578
      ],
      [
        "▁trad",
        -21.67656135559082
      ],
      [
        "ients",
        -16.89605712890625
      ],
      [
        "ama",
        -15.989829063415527
      ],
      [
        "▁input",
        -14.830453872680664
      ],
      [
        "lim",
        -17.4216251373291
      ],
      [
        "па",
        -20.59640884399414
      ],
      [
        "▁ка",
        -21.529186248779297
      ],
      [
        "▁camp",
        -17.92405891418457
      ],
      [
        "ibr",
        -20.318153381347656
      ],
      [
        "fect",
        -17.855926513671875
      ],
      [
        "unt",
        -17.678787231445312
      ],
      [
        "▁half",
        -16.148054122924805
      ],
      [
        "▁cover",
        -16.935781478881836
      ],
      [
        "anguage",
        -27.765846252441406
      ],
      [
        "▁ben",
        -20.399477005004883
      ],
      [
        "ha",
        -15.212882041931152
      ],
      [
        "▁diff",
        -18.13389587402344
      ],
      [
        "_\\",
        -19.891551971435547
      ],
      [
        "▁об",
        -22.193668365478516
      ],
      [
        "])",
        -15.619136810302734
      ],
      [
        "odes",
        -18.321266174316406
      ],
      [
        "hel",
        -18.834571838378903
      ],
      [
        "ios",
        -17.104373931884766
      ],
      [
        "▁О",
        -19.60529136657715
      ],
      [
        "▁mot",
        -19.078147888183594
      ],
      [
        "▁social",
        -16.041885375976562
      ],
      [
        "////////",
        -18.712711334228516
      ],
      [
        "▁stre",
        -22.94583320617676
      ],
      [
        "ground",
        -17.394344329833984
      ],
      [
        "ів",
        -20.266136169433594
      ],
      [
        "object",
        -14.215703010559082
      ],
      [
        "ples",
        -18.798561096191406
      ],
      [
        "reed",
        -20.4614315032959
      ],
      [
        "▁een",
        -22.839744567871097
      ],
      [
        "▁based",
        -15.179747581481934
      ],
      [
        "▁range",
        -15.529685020446776
      ],
      [
        "An",
        -16.75286293029785
      ],
      [
        "urg",
        -18.52857780456543
      ],
      [
        "▁learn",
        -16.52422523498535
      ],
      [
        "▁exc",
        -18.42485618591309
      ],
      [
        "▁imp",
        -18.34099769592285
      ],
      [
        "▁means",
        -15.858370780944824
      ],
      [
        "▁wur",
        -25.418081283569336
      ],
      [
        "ends",
        -18.141326904296875
      ],
      [
        "void",
        -11.924317359924316
      ],
      [
        "▁std",
        -13.775634765625
      ],
      [
        "▁particular",
        -16.6896915435791
      ],
      [
        "ja",
        -16.000877380371094
      ],
      [
        "▁source",
        -14.570643424987791
      ],
      [
        "default",
        -13.936320304870604
      ],
      [
        "py",
        -15.38351058959961
      ],
      [
        "▁als",
        -22.94072532653809
      ],
      [
        "scri",
        -22.954931259155273
      ],
      [
        "status",
        -14.097414016723633
      ],
      [
        "▁story",
        -15.782102584838867
      ],
      [
        "▁begin",
        -16.973491668701172
      ],
      [
        "▁position",
        -15.579164505004885
      ],
      [
        "▁special",
        -15.594606399536133
      ],
      [
        "php",
        -16.007728576660156
      ],
      [
        "▁bar",
        -16.696598052978516
      ],
      [
        "▁pract",
        -21.030731201171875
      ],
      [
        "call",
        -15.212450981140137
      ],
      [
        "▁das",
        -20.176563262939453
      ],
      [
        "▁rad",
        -20.222000122070312
      ],
      [
        "▁close",
        -15.9431734085083
      ],
      [
        "www",
        -17.158863067626953
      ],
      [
        "ере",
        -21.328372955322266
      ],
      [
        "gu",
        -16.4139347076416
      ],
      [
        "▁Er",
        -16.899343490600586
      ],
      [
        "▁dom",
        -20.068925857543945
      ],
      [
        "AM",
        -15.539881706237791
      ],
      [
        "▁bed",
        -17.85257339477539
      ],
      [
        "▁several",
        -16.0185604095459
      ],
      [
        "aul",
        -18.60546112060547
      ],
      [
        "box",
        -15.074536323547363
      ],
      [
        "▁low",
        -16.05620574951172
      ],
      [
        "pack",
        -16.26097297668457
      ],
      [
        "Reg",
        -16.16513442993164
      ],
      [
        "Of",
        -15.52724838256836
      ],
      [
        "atures",
        -20.505517959594727
      ],
      [
        "én",
        -18.988481521606445
      ],
      [
        "eder",
        -19.681455612182617
      ],
      [
        "uilder",
        -24.86687469482422
      ],
      [
        "cast",
        -14.943107604980469
      ],
      [
        "conom",
        -21.779794692993164
      ],
      [
        "raft",
        -17.988920211791992
      ],
      [
        "▁makes",
        -16.07689666748047
      ],
      [
        "Loc",
        -16.937469482421875
      ],
      [
        "http",
        -16.26789093017578
      ],
      [
        "▁abs",
        -18.6446590423584
      ],
      [
        "resh",
        -18.57703971862793
      ],
      [
        "▁Will",
        -15.996339797973633
      ],
      [
        "break",
        -11.65503978729248
      ],
      [
        "▁options",
        -15.76337718963623
      ],
      [
        "fort",
        -18.380258560180664
      ],
      [
        "▁из",
        -21.62252616882324
      ],
      [
        "▁anal",
        -21.08384895324707
      ],
      [
        "▁env",
        -17.828323364257812
      ],
      [
        "({",
        -19.866748809814453
      ],
      [
        "event",
        -14.819528579711914
      ],
      [
        "▁page",
        -14.59385108947754
      ],
      [
        "ternal",
        -19.389310836791992
      ],
      [
        "▁distribut",
        -19.660173416137695
      ],
      [
        "▁food",
        -16.247268676757812
      ],
      [
        "check",
        -14.921143531799316
      ],
      [
        "CK",
        -15.65389633178711
      ],
      [
        "▁во",
        -22.3417911529541
      ],
      [
        "assert",
        -14.425012588500977
      ],
      [
        "án",
        -17.84394645690918
      ],
      [
        "base",
        -14.20708179473877
      ],
      [
        "▁whole",
        -16.368812561035156
      ],
      [
        "ación",
        -19.36316299438477
      ],
      [
        "OD",
        -16.43741798400879
      ],
      [
        "▁turned",
        -17.534379959106445
      ],
      [
        "igma",
        -19.60748291015625
      ],
      [
        "▁response",
        -15.92743968963623
      ],
      [
        "▁University",
        -13.861054420471191
      ],
      [
        "▁div",
        -19.18511199951172
      ],
      [
        "apter",
        -20.109050750732425
      ],
      [
        "▁results",
        -15.317767143249512
      ],
      [
        "▁represent",
        -18.024009704589844
      ],
      [
        "▁everything",
        -16.415037155151367
      ],
      [
        "▁Cent",
        -18.491844177246097
      ],
      [
        "utes",
        -18.39667510986328
      ],
      [
        "rix",
        -19.182373046875
      ],
      [
        "▁Some",
        -15.92046070098877
      ],
      [
        "▁behind",
        -16.85555648803711
      ],
      [
        "▁creat",
        -22.21798515319824
      ],
      [
        "place",
        -16.646703720092773
      ],
      [
        "su",
        -15.723998069763184
      ],
      [
        "▁Part",
        -15.695504188537598
      ],
      [
        "umb",
        -16.761367797851562
      ],
      [
        "mathbb",
        -19.319223403930664
      ],
      [
        "ping",
        -16.368518829345703
      ],
      [
        "▁match",
        -15.718195915222168
      ],
      [
        "Out",
        -15.206579208374023
      ],
      [
        "dom",
        -17.34979820251465
      ],
      [
        "▁situ",
        -21.94022560119629
      ],
      [
        "dr",
        -15.37873077392578
      ],
      [
        "ara",
        -15.633618354797363
      ],
      [
        "▁window",
        -15.828190803527832
      ],
      [
        "ns",
        -14.901461601257324
      ],
      [
        "lished",
        -18.93697166442871
      ],
      [
        "▁Ver",
        -15.8889741897583
      ],
      [
        "▁message",
        -15.082357406616213
      ],
      [
        "▁Em",
        -16.08417320251465
      ],
      [
        "▁human",
        -16.50977897644043
      ],
      [
        "perties",
        -27.1284122467041
      ],
      [
        "лу",
        -21.102079391479492
      ],
      [
        "lem",
        -17.844566345214844
      ],
      [
        "ORT",
        -15.950251579284668
      ],
      [
        "▁early",
        -16.048267364501953
      ],
      [
        "▁quick",
        -17.306175231933594
      ],
      [
        "▁та",
        -21.86394691467285
      ],
      [
        "roid",
        -18.96430015563965
      ],
      [
        "▁country",
        -16.01514434814453
      ],
      [
        "▁due",
        -16.07069969177246
      ],
      [
        "▁Die",
        -17.803133010864258
      ],
      [
        "▁trying",
        -16.706260681152344
      ],
      [
        "▁live",
        -15.862117767333984
      ],
      [
        "▁press",
        -17.581279754638672
      ],
      [
        "INT",
        -14.08099365234375
      ],
      [
        "With",
        -15.573285102844238
      ],
      [
        "oved",
        -20.357654571533203
      ],
      [
        "▁specific",
        -15.023627281188965
      ],
      [
        "▁fall",
        -16.766759872436523
      ],
      [
        "uk",
        -15.596598625183104
      ],
      [
        "yl",
        -16.114784240722656
      ],
      [
        "▁general",
        -16.01188087463379
      ],
      [
        "му",
        -21.257789611816406
      ],
      [
        "ну",
        -21.278762817382812
      ],
      [
        "▁names",
        -16.1754150390625
      ],
      [
        "where",
        -17.467172622680664
      ],
      [
        "▁These",
        -15.583939552307127
      ],
      [
        "▁sil",
        -19.621257781982425
      ],
      [
        "ét",
        -20.23174095153809
      ],
      [
        "▁ener",
        -27.281389236450195
      ],
      [
        "▁Now",
        -15.396069526672363
      ],
      [
        "▁address",
        -14.771763801574709
      ],
      [
        "Response",
        -16.564786911010742
      ],
      [
        "▁Mr",
        -17.522668838500977
      ],
      [
        "▁answ",
        -26.04821014404297
      ],
      [
        "▁film",
        -15.322257041931152
      ],
      [
        "▁strong",
        -16.52484130859375
      ],
      [
        "▁bring",
        -16.899511337280273
      ],
      [
        "▁United",
        -14.12386703491211
      ],
      [
        "▁ge",
        -17.737918853759766
      ],
      [
        "▁woman",
        -17.188556671142578
      ],
      [
        "New",
        -15.240066528320312
      ],
      [
        "ett",
        -17.167802810668945
      ],
      [
        ".)",
        -16.244892120361328
      ],
      [
        "ename",
        -20.98493003845215
      ],
      [
        "▁AN",
        -16.943437576293945
      ],
      [
        "▁describ",
        -25.86868476867676
      ],
      [
        "за",
        -20.40474319458008
      ],
      [
        "ising",
        -16.989822387695312
      ],
      [
        "EL",
        -15.02931785583496
      ],
      [
        "ql",
        -18.711925506591797
      ],
      [
        "▁fur",
        -19.664257049560547
      ],
      [
        "ying",
        -17.998952865600586
      ],
      [
        "▁Cal",
        -15.721118927001951
      ],
      [
        "▁Dr",
        -16.372421264648438
      ],
      [
        "ERR",
        -14.387368202209473
      ],
      [
        "▁\\\\",
        -17.02791976928711
      ],
      [
        "angle",
        -16.898658752441406
      ],
      [
        "urope",
        -23.585468292236328
      ],
      [
        "▁city",
        -16.097352981567383
      ],
      [
        "▁index",
        -14.60274887084961
      ],
      [
        "▁action",
        -15.991761207580566
      ],
      [
        "▁However",
        -16.09856605529785
      ],
      [
        "▁fig",
        -20.62520408630371
      ],
      [
        "ias",
        -17.649017333984375
      ],
      [
        "▁question",
        -16.343894958496094
      ],
      [
        "▁Jan",
        -16.104555130004883
      ],
      [
        "▁Med",
        -17.235471725463867
      ],
      [
        "▁Cont",
        -17.965158462524414
      ],
      [
        "amed",
        -19.277341842651367
      ],
      [
        "Call",
        -15.780021667480469
      ],
      [
        "plied",
        -18.334457397460938
      ],
      [
        "tty",
        -16.553327560424805
      ],
      [
        "▁individ",
        -23.909557342529297
      ],
      [
        "page",
        -15.267735481262209
      ],
      [
        "▁comb",
        -19.988361358642575
      ],
      [
        "section",
        -15.995490074157717
      ],
      [
        "▁Comm",
        -18.060346603393555
      ],
      [
        "uel",
        -18.328794479370117
      ],
      [
        "▁het",
        -21.8304500579834
      ],
      [
        "▁Bar",
        -15.657971382141112
      ],
      [
        "agement",
        -19.517257690429688
      ],
      [
        "fin",
        -17.745738983154297
      ],
      [
        "▁major",
        -16.28102684020996
      ],
      [
        "oper",
        -17.1304988861084
      ],
      [
        "api",
        -15.96869659423828
      ],
      [
        "room",
        -16.316335678100586
      ],
      [
        "▁„",
        -21.49329376220703
      ],
      [
        "▁hab",
        -23.25141334533691
      ],
      [
        "зи",
        -20.926654815673828
      ],
      [
        "▁auf",
        -20.13298988342285
      ],
      [
        "current",
        -15.30066204071045
      ],
      [
        "ni",
        -14.947604179382324
      ],
      [
        "▁include",
        -16.549360275268555
      ],
      [
        "▁qui",
        -18.857797622680664
      ],
      [
        "va",
        -15.547691345214844
      ],
      [
        "UE",
        -16.47044563293457
      ],
      [
        "▁idea",
        -16.540157318115234
      ],
      [
        ",'",
        -19.715181350708008
      ],
      [
        "▁required",
        -15.336517333984377
      ],
      [
        "▁heart",
        -16.577722549438477
      ],
      [
        "ibility",
        -16.75750160217285
      ],
      [
        "iction",
        -17.335250854492188
      ],
      [
        "Model",
        -15.920257568359377
      ],
      [
        "write",
        -14.253822326660156
      ],
      [
        "▁content",
        -15.703946113586426
      ],
      [
        "▁wer",
        -25.1046085357666
      ],
      [
        "▁hands",
        -17.481246948242188
      ],
      [
        "zen",
        -17.367733001708984
      ],
      [
        "char",
        -12.987552642822266
      ],
      [
        "}^{",
        -19.535743713378903
      ],
      [
        "▁mass",
        -17.508106231689453
      ],
      [
        "ply",
        -18.282983779907227
      ],
      [
        "▁nat",
        -20.2379207611084
      ],
      [
        "rel",
        -15.499244689941406
      ],
      [
        "▁dat",
        -19.619688034057617
      ],
      [
        "================",
        -15.388588905334473
      ],
      [
        "imal",
        -18.34613990783691
      ],
      [
        "▁probably",
        -16.750173568725586
      ],
      [
        "unch",
        -17.78630256652832
      ],
      [
        "▁mer",
        -19.37453842163086
      ],
      [
        "ilar",
        -19.894948959350582
      ],
      [
        "ires",
        -18.68028450012207
      ],
      [
        "▁watch",
        -16.91452407836914
      ],
      [
        "SI",
        -15.047547340393066
      ],
      [
        "▁cult",
        -20.38494873046875
      ],
      [
        "▁mother",
        -17.293794631958008
      ],
      [
        "▁government",
        -15.962512969970703
      ],
      [
        "ording",
        -21.570411682128903
      ],
      [
        "▁()",
        -18.113449096679688
      ],
      [
        "▁pri",
        -20.26734161376953
      ],
      [
        "▁link",
        -15.745512962341309
      ],
      [
        "group",
        -14.814781188964844
      ],
      [
        "OL",
        -15.624876022338867
      ],
      [
        "▁near",
        -16.381288528442383
      ],
      [
        "▁Ser",
        -16.55807876586914
      ],
      [
        "Ser",
        -19.617834091186523
      ],
      [
        "ito",
        -17.09893226623535
      ],
      [
        "▁values",
        -15.066163063049316
      ],
      [
        "▁java",
        -18.60421562194824
      ],
      [
        "fully",
        -17.542875289916992
      ],
      [
        "Count",
        -14.689688682556152
      ],
      [
        "++)",
        -14.262368202209473
      ],
      [
        "▁vi",
        -17.976634979248047
      ],
      [
        "▁white",
        -16.441659927368164
      ],
      [
        "mat",
        -16.389028549194336
      ],
      [
        "ctx",
        -14.009153366088867
      ],
      [
        "▁conc",
        -19.180776596069336
      ],
      [
        "▁stay",
        -16.836275100708008
      ],
      [
        "ging",
        -16.077829360961914
      ],
      [
        "▁clear",
        -15.7199068069458
      ],
      [
        "▁copy",
        -14.67549991607666
      ],
      [
        "selves",
        -20.67171859741211
      ],
      [
        "▁provide",
        -15.786311149597168
      ],
      [
        "▁words",
        -16.53711700439453
      ],
      [
        "comp",
        -16.063213348388672
      ],
      [
        "args",
        -14.973493576049805
      ],
      [
        "▁pick",
        -17.392375946044922
      ],
      [
        "uly",
        -19.096166610717773
      ],
      [
        "▁vari",
        -20.513397216796875
      ],
      [
        "▁believe",
        -16.656177520751953
      ],
      [
        "▁Co",
        -15.098376274108888
      ],
      [
        "Property",
        -16.375858306884766
      ],
      [
        "Group",
        -16.218595504760742
      ],
      [
        "▁ten",
        -17.464998245239258
      ],
      [
        "ischen",
        -20.07375144958496
      ],
      [
        "eturn",
        -25.741689682006836
      ],
      [
        "ival",
        -17.641502380371094
      ],
      [
        "System",
        -15.808236122131348
      ],
      [
        "CL",
        -15.276565551757812
      ],
      [
        "bed",
        -17.20872688293457
      ],
      [
        "▁total",
        -15.750779151916504
      ],
      [
        "▁ist",
        -22.826688766479492
      ],
      [
        "Input",
        -15.802373886108398
      ],
      [
        "uments",
        -20.097488403320312
      ],
      [
        "Manager",
        -15.87884521484375
      ],
      [
        "ши",
        -21.244604110717773
      ],
      [
        "▁win",
        -15.9253511428833
      ],
      [
        "leep",
        -18.998701095581055
      ],
      [
        "PI",
        -14.95549201965332
      ],
      [
        "ного",
        -21.434362411499023
      ],
      [
        "ruction",
        -19.037084579467773
      ],
      [
        "▁inte",
        -22.648962020874023
      ],
      [
        "App",
        -16.39603614807129
      ],
      [
        "avor",
        -18.92499732971191
      ],
      [
        "▁respect",
        -17.512054443359375
      ],
      [
        "ators",
        -16.075647354125977
      ],
      [
        "▁como",
        -20.89577865600586
      ],
      [
        "▁cut",
        -16.92767333984375
      ],
      [
        "FA",
        -15.575692176818848
      ],
      [
        "▁sus",
        -21.231473922729492
      ],
      [
        "▁App",
        -16.15294647216797
      ],
      [
        "rect",
        -16.7501277923584
      ],
      [
        "FI",
        -14.918725967407228
      ],
      [
        "▁began",
        -17.08827781677246
      ],
      [
        "oph",
        -16.925277709960938
      ],
      [
        "▁sort",
        -17.11180305480957
      ],
      [
        "though",
        -19.972484588623047
      ],
      [
        "је",
        -23.412738800048828
      ],
      [
        "icro",
        -24.522491455078125
      ],
      [
        "Trans",
        -17.08013153076172
      ],
      [
        "лі",
        -17.750282287597656
      ],
      [
        "▁Inst",
        -19.413246154785156
      ],
      [
        "request",
        -15.432435035705566
      ],
      [
        "ор",
        -20.66975975036621
      ],
      [
        "▁relations",
        -17.595657348632812
      ],
      [
        "-\\",
        -19.70218276977539
      ],
      [
        "Status",
        -14.67355728149414
      ],
      [
        "жи",
        -21.201492309570312
      ],
      [
        "▁father",
        -17.351947784423828
      ],
      [
        "cs",
        -15.086190223693848
      ],
      [
        "▁sex",
        -17.322092056274414
      ],
      [
        "isch",
        -19.12952995300293
      ],
      [
        "vo",
        -16.882919311523438
      ],
      [
        "}_{",
        -19.17852020263672
      ],
      [
        "aven",
        -18.399505615234375
      ],
      [
        "▁Ne",
        -15.753106117248535
      ],
      [
        "ATE",
        -15.694779396057127
      ],
      [
        "itten",
        -18.57870101928711
      ],
      [
        "▁ess",
        -24.71245574951172
      ],
      [
        "TH",
        -14.835222244262695
      ],
      [
        "ights",
        -18.10356903076172
      ],
      [
        "▁hom",
        -19.08108901977539
      ],
      [
        "▁today",
        -15.676775932312012
      ],
      [
        "▁zu",
        -20.64435386657715
      ],
      [
        "ita",
        -16.239809036254883
      ],
      [
        "▁isn",
        -16.654447555541992
      ],
      [
        "▁opt",
        -17.278907775878906
      ],
      [
        "ogn",
        -17.42580795288086
      ],
      [
        "ér",
        -18.668685913085938
      ],
      [
        "▁whether",
        -15.704262733459473
      ],
      [
        "ixed",
        -20.863243103027344
      ],
      [
        "phi",
        -16.97622299194336
      ],
      [
        "idence",
        -17.568483352661133
      ],
      [
        "ald",
        -17.064556121826172
      ],
      [
        "Client",
        -15.656142234802246
      ],
      [
        "At",
        -16.332944869995117
      ],
      [
        "▁death",
        -16.304555892944336
      ],
      [
        "▁Let",
        -16.01896095275879
      ],
      [
        "ius",
        -16.672887802124023
      ],
      [
        "ги",
        -20.835386276245117
      ],
      [
        "▁ре",
        -21.86908721923828
      ],
      [
        "ben",
        -18.359193801879883
      ],
      [
        ")\r",
        -125.5939712524414
      ],
      [
        "ba",
        -15.299602508544922
      ],
      [
        "></",
        -17.789060592651367
      ],
      [
        "avel",
        -19.31774139404297
      ],
      [
        "▁miss",
        -17.55360221862793
      ],
      [
        "▁node",
        -15.16714096069336
      ],
      [
        "▁($",
        -18.670211791992188
      ],
      [
        "▁color",
        -15.702836990356444
      ],
      [
        "▁obt",
        -21.90517807006836
      ],
      [
        "tot",
        -18.485979080200195
      ],
      [
        "▁пре",
        -22.000526428222656
      ],
      [
        "CON",
        -15.20720100402832
      ],
      [
        "ette",
        -16.225807189941406
      ],
      [
        "▁Go",
        -15.255146026611328
      ],
      [
        "Fl",
        -17.09695053100586
      ],
      [
        "▁Don",
        -16.16864585876465
      ],
      [
        "▁crit",
        -22.200361251831055
      ],
      [
        "▁ri",
        -18.44480323791504
      ],
      [
        "post",
        -16.425722122192383
      ],
      [
        "▁->",
        -18.733898162841797
      ],
      [
        "▁Just",
        -16.156612396240234
      ],
      [
        "What",
        -17.60588836669922
      ],
      [
        "atal",
        -18.29646110534668
      ],
      [
        "▁Min",
        -16.149553298950195
      ],
      [
        "▁Cor",
        -15.75469207763672
      ],
      [
        "▁dark",
        -17.680742263793945
      ],
      [
        "rl",
        -16.967954635620117
      ],
      [
        "▁larg",
        -22.37749671936035
      ],
      [
        "ding",
        -16.846813201904297
      ],
      [
        "ón",
        -18.32393264770508
      ],
      [
        "ouch",
        -18.903156280517575
      ],
      [
        "▁um",
        -21.026857376098633
      ],
      [
        "▁elect",
        -19.28253936767578
      ],
      [
        "▁dam",
        -19.709972381591797
      ],
      [
        "▁needs",
        -15.818042755126951
      ],
      [
        "▁matter",
        -16.890743255615234
      ],
      [
        "▁rather",
        -16.75640106201172
      ],
      [
        "from",
        -15.07624626159668
      ],
      [
        "ram",
        -16.04265022277832
      ],
      [
        "▁і",
        -21.79429626464844
      ],
      [
        "▁taken",
        -16.48780059814453
      ],
      [
        "▁deal",
        -16.287872314453125
      ],
      [
        "▁period",
        -16.387954711914062
      ],
      [
        "▁Mon",
        -16.003204345703125
      ],
      [
        "▁Л",
        -20.727874755859375
      ],
      [
        "▁Aug",
        -17.16650390625
      ],
      [
        "run",
        -16.006912231445312
      ],
      [
        "mm",
        -13.934243202209473
      ],
      [
        "elle",
        -17.899303436279297
      ],
      [
        "▁export",
        -17.801456451416016
      ],
      [
        "Sc",
        -17.279634475708008
      ],
      [
        "vis",
        -16.842514038085938
      ],
      [
        "abor",
        -18.552295684814453
      ],
      [
        "▁author",
        -16.231042861938477
      ],
      [
        "ère",
        -20.070568084716797
      ],
      [
        "▁remember",
        -17.192346572875977
      ],
      [
        "▁redu",
        -21.587533950805664
      ],
      [
        "▁List",
        -14.680694580078123
      ],
      [
        "▁focus",
        -16.987548828125
      ],
      [
        "▁character",
        -15.961094856262209
      ],
      [
        "Table",
        -15.094672203063965
      ],
      [
        "▁individual",
        -16.836467742919922
      ],
      [
        "▁needed",
        -15.79127025604248
      ],
      [
        "bum",
        -21.11900520324707
      ],
      [
        "▁style",
        -14.58135986328125
      ],
      [
        "inary",
        -17.771419525146484
      ],
      [
        "ersion",
        -20.85334014892578
      ],
      [
        "oute",
        -23.15513038635254
      ],
      [
        "▁Pe",
        -16.320175170898438
      ],
      [
        "▁hon",
        -20.007728576660156
      ],
      [
        "mut",
        -18.461843490600582
      ],
      [
        "see",
        -15.999046325683594
      ],
      [
        "▁became",
        -16.72488784790039
      ],
      [
        "▁dire",
        -21.663124084472656
      ],
      [
        "▁document",
        -17.119800567626953
      ],
      [
        "sec",
        -15.71156406402588
      ],
      [
        "ening",
        -18.131683349609375
      ],
      [
        "▁visit",
        -16.16556739807129
      ],
      [
        "▁fac",
        -20.12602806091309
      ],
      [
        "tx",
        -14.792067527770996
      ],
      [
        "down",
        -16.016420364379883
      ],
      [
        "plit",
        -23.06295394897461
      ],
      [
        "▁phys",
        -18.665019989013672
      ],
      [
        "itting",
        -18.393346786499023
      ],
      [
        "joy",
        -18.819822311401367
      ],
      [
        "▁hig",
        -22.495784759521484
      ],
      [
        "This",
        -14.86870288848877
      ],
      [
        "Ad",
        -17.022743225097656
      ],
      [
        "▁Brit",
        -18.439786911010746
      ],
      [
        "▁employ",
        -19.59218406677246
      ],
      [
        "▁ré",
        -20.20594024658203
      ],
      [
        "▁т",
        -24.400630950927734
      ],
      [
        "lambda",
        -17.725494384765625
      ],
      [
        "▁impro",
        -20.095834732055664
      ],
      [
        "▁Bo",
        -15.613350868225098
      ],
      [
        "iding",
        -18.197378158569336
      ],
      [
        "▁online",
        -15.291437149047852
      ],
      [
        "mem",
        -14.697062492370604
      ],
      [
        "atform",
        -26.7921199798584
      ],
      [
        "▁War",
        -14.929637908935549
      ],
      [
        "▁cas",
        -19.68225479125977
      ],
      [
        "asure",
        -21.283430099487305
      ],
      [
        "▁pur",
        -19.0419864654541
      ],
      [
        "medi",
        -20.17266273498535
      ],
      [
        "Dis",
        -17.255508422851562
      ],
      [
        "▁Germ",
        -21.13420295715332
      ],
      [
        "pc",
        -15.154302597045898
      ],
      [
        "са",
        -20.7208309173584
      ],
      [
        "▁friends",
        -16.5808048248291
      ],
      [
        "▁Mc",
        -16.14544677734375
      ],
      [
        "DI",
        -15.274109840393066
      ],
      [
        "▁plus",
        -17.903623580932617
      ],
      [
        "▁Set",
        -14.365217208862305
      ],
      [
        "iddle",
        -18.577043533325195
      ],
      [
        "itut",
        -20.84430694580078
      ],
[...]
